{
  "version": "1.0",
  "truncation": null,
  "padding": null,
  "added_tokens": [
    {
      "id": 0,
      "content": "<|endoftext|>",
      "single_word": false,
      "lstrip": false,
      "rstrip": false,
      "normalized": false,
      "special": true
    },
    {
      "id": 1,
      "content": "Q:",
      "single_word": false,
      "lstrip": false,
      "rstrip": false,
      "normalized": false,
      "special": true
    },
    {
      "id": 2,
      "content": "A:",
      "single_word": false,
      "lstrip": false,
      "rstrip": false,
      "normalized": false,
      "special": true
    }
  ],
  "normalizer": null,
  "pre_tokenizer": {
    "type": "ByteLevel",
    "add_prefix_space": false,
    "trim_offsets": true,
    "use_regex": true
  },
  "post_processor": null,
  "decoder": {
    "type": "ByteLevel",
    "add_prefix_space": true,
    "trim_offsets": true,
    "use_regex": true
  },
  "model": {
    "type": "BPE",
    "dropout": null,
    "unk_token": null,
    "continuing_subword_prefix": null,
    "end_of_word_suffix": null,
    "fuse_unk": false,
    "byte_fallback": false,
    "ignore_merges": false,
    "vocab": {
      "<|endoftext|>": 0,
      "Q:": 1,
      "A:": 2,
      "!": 3,
      "\"": 4,
      "#": 5,
      "$": 6,
      "%": 7,
      "&": 8,
      "'": 9,
      ")": 10,
      "*": 11,
      "+": 12,
      ",": 13,
      "-": 14,
      ".": 15,
      "/": 16,
      "0": 17,
      "1": 18,
      "2": 19,
      "3": 20,
      "4": 21,
      "5": 22,
      "6": 23,
      "7": 24,
      "8": 25,
      "9": 26,
      ":": 27,
      ";": 28,
      "<": 29,
      "=": 30,
      ">": 31,
      "?": 32,
      "A": 33,
      "B": 34,
      "C": 35,
      "D": 36,
      "E": 37,
      "F": 38,
      "G": 39,
      "H": 40,
      "I": 41,
      "J": 42,
      "K": 43,
      "L": 44,
      "M": 45,
      "N": 46,
      "O": 47,
      "P": 48,
      "Q": 49,
      "R": 50,
      "S": 51,
      "T": 52,
      "U": 53,
      "V": 54,
      "W": 55,
      "X": 56,
      "Y": 57,
      "Z": 58,
      "[": 59,
      "]": 60,
      "^": 61,
      "_": 62,
      "`": 63,
      "a": 64,
      "b": 65,
      "c": 66,
      "d": 67,
      "e": 68,
      "f": 69,
      "g": 70,
      "h": 71,
      "i": 72,
      "j": 73,
      "k": 74,
      "l": 75,
      "m": 76,
      "n": 77,
      "o": 78,
      "p": 79,
      "q": 80,
      "r": 81,
      "s": 82,
      "t": 83,
      "u": 84,
      "v": 85,
      "w": 86,
      "x": 87,
      "y": 88,
      "z": 89,
      "{": 90,
      "|": 91,
      "}": 92,
      "~": 93,
      "½": 94,
      "¿": 95,
      "ï": 96,
      "ĉ": 97,
      "Ċ": 98,
      "Ġ": 99,
      "Ġt": 100,
      "ou": 101,
      "he": 102,
      "Ġa": 103,
      "in": 104,
      "Ġw": 105,
      "ĠI": 106,
      "re": 107,
      "Ġs": 108,
      "ha": 109,
      "Ġy": 110,
      "on": 111,
      "Ġyou": 112,
      "Ġm": 113,
      "Ġthe": 114,
      "Ġd": 115,
      "it": 116,
      "Ġb": 117,
      "..": 118,
      "ll": 119,
      "er": 120,
      "ing": 121,
      "Ġto": 122,
      "Ġc": 123,
      "an": 124,
      "hat": 125,
      "is": 126,
      "Ġg": 127,
      "Ġf": 128,
      "or": 129,
      "en": 130,
      "Ġl": 131,
      "ĠW": 132,
      "'s": 133,
      "ow": 134,
      "ve": 135,
      "Ġn": 136,
      "nd": 137,
      "ot": 138,
      "es": 139,
      "Ġp": 140,
      "ĠT": 141,
      "Ġo": 142,
      "'t": 143,
      "ĠY": 144,
      "ed": 145,
      "et": 146,
      "om": 147,
      "ar": 148,
      "Ġth": 149,
      "Ġhe": 150,
      "...": 151,
      "Ġit": 152,
      "st": 153,
      "ay": 154,
      "Ġh": 155,
      "Ġin": 156,
      "Ġha": 157,
      "Ġof": 158,
      "at": 159,
      "Ġme": 160,
      "Ġbe": 161,
      "Ġk": 162,
      "ĠYou": 163,
      "as": 164,
      "id": 165,
      "ĠS": 166,
      "le": 167,
      "ĠA": 168,
      "Ġthat": 169,
      "gh": 170,
      "ĠH": 171,
      "Ġand": 172,
      "ld": 173,
      "Ġon": 174,
      "ut": 175,
      "out": 176,
      "ck": 177,
      "Ġdo": 178,
      "se": 179,
      "ke": 180,
      "im": 181,
      "Ġwe": 182,
      "Ġu": 183,
      "al": 184,
      "Ġe": 185,
      "ght": 186,
      "ĠM": 187,
      "Ġis": 188,
      "ver": 189,
      "--": 190,
      "ĠN": 191,
      "oo": 192,
      "ri": 193,
      "Ġkn": 194,
      "ĠB": 195,
      "Ġfor": 196,
      "ĠThe": 197,
      "Ġknow": 198,
      "ĠD": 199,
      "'m": 200,
      "ce": 201,
      "Ġli": 202,
      "Ġre": 203,
      "ad": 204,
      "Ġdon": 205,
      "'re": 206,
      "Ġst": 207,
      "ĠWhat": 208,
      "ust": 209,
      "Ġwas": 210,
      "ĠC": 211,
      "Ġan": 212,
      "Ġyour": 213,
      "ell": 214,
      "Ġhave": 215,
      "ould": 216,
      "ome": 217,
      "Ġnot": 218,
      "Ġ--": 219,
      "Ġgo": 220,
      "ir": 221,
      "ant": 222,
      "ith": 223,
      "am": 224,
      "ch": 225,
      "ill": 226,
      "Ġthis": 227,
      "ĠO": 228,
      "Ġmy": 229,
      "ee": 230,
      "Ġj": 231,
      "Ġwith": 232,
      "ent": 233,
      "Ġwhat": 234,
      "ĠIt": 235,
      "ly": 236,
      "all": 237,
      "ĠL": 238,
      "ion": 239,
      "Ġcan": 240,
      "ct": 241,
      "ĠG": 242,
      "if": 243,
      "ea": 244,
      "her": 245,
      "hing": 246,
      "ro": 247,
      "Ġab": 248,
      "ho": 249,
      "Ġget": 250,
      "ĠHe": 251,
      "Ġare": 252,
      "Ġne": 253,
      "ink": 254,
      "Ġout": 255,
      "'ll": 256,
      "Ġwant": 257,
      "Ġlike": 258,
      "Ġabout": 259,
      "ra": 260,
      "Ġall": 261,
      "ĠNo": 262,
      "ĠJ": 263,
      "ter": 264,
      "Ġjust": 265,
      "Ġgot": 266,
      "ry": 267,
      "Ġas": 268,
      "ic": 269,
      "Ġhim": 270,
      "one": 271,
      "Ġdid": 272,
      "ake": 273,
      "Ġup": 274,
      "Ġthink": 275,
      "ĠP": 276,
      "ight": 277,
      "ĠF": 278,
      "ur": 279,
      "pp": 280,
      "Ġhere": 281,
      "ĠWe": 282,
      "ie": 283,
      "Ġat": 284,
      "Ġsh": 285,
      "un": 286,
      "ook": 287,
      "ĠThat": 288,
      "Ġso": 289,
      "'ve": 290,
      "Ġany": 291,
      "ĠAnd": 292,
      "ĠR": 293,
      "ore": 294,
      "Ġthey": 295,
      "Ġthere": 296,
      "ood": 297,
      "hy": 298,
      "our": 299,
      "Ġwor": 300,
      "and": 301,
      "op": 302,
      "right": 303,
      "ack": 304,
      "ind": 305,
      "Ġsu": 306,
      "very": 307,
      "il": 308,
      "Ġbut": 309,
      "Ġone": 310,
      "ĠE": 311,
      "ive": 312,
      "Ġher": 313,
      "ess": 314,
      "han": 315,
      "us": 316,
      "od": 317,
      "Ġsee": 318,
      "Ġwhe": 319,
      "Ġno": 320,
      "Ġsome": 321,
      "Ġde": 322,
      "art": 323,
      "Ġright": 324,
      "Ġif": 325,
      "Ġgoing": 326,
      "ĠBut": 327,
      "other": 328,
      "ally": 329,
      "Ġsay": 330,
      "ĠĠ": 331,
      "rom": 332,
      "ig": 333,
      "au": 334,
      "ge": 335,
      "Ġal": 336,
      "uck": 337,
      "Ġr": 338,
      "end": 339,
      "own": 340,
      "ain": 341,
      "ist": 342,
      "Ġwould": 343,
      "ĠWell": 344,
      "Ġsa": 345,
      "Ġshe": 346,
      "ime": 347,
      "ĠOh": 348,
      "alk": 349,
      "est": 350,
      "Ġus": 351,
      "'d": 352,
      "Ġman": 353,
      "eah": 354,
      "Ġlo": 355,
      "Ġpl": 356,
      "ong": 357,
      "Ġ...": 358,
      "Ġwho": 359,
      "ven": 360,
      "Ġor": 361,
      "ame": 362,
      "rou": 363,
      "red": 364,
      "Ġcould": 365,
      "ast": 366,
      "omet": 367,
      "Ġgu": 368,
      "Ġwere": 369,
      "Ġthing": 370,
      "ĠHow": 371,
      "way": 372,
      "Ġtell": 373,
      "em": 374,
      "Ġhis": 375,
      "ers": 376,
      "ab": 377,
      "Ġnow": 378,
      "os": 379,
      "ul": 380,
      "ĠYes": 381,
      "ol": 382,
      "ĠThey": 383,
      "Ġfrom": 384,
      "Ġbeen": 385,
      "ear": 386,
      "Ġtime": 387,
      "fe": 388,
      "ine": 389,
      "Ġmean": 390,
      "ĠYeah": 391,
      "na": 392,
      "ate": 393,
      "Ġthem": 394,
      "ĠTh": 395,
      "Ġ-": 396,
      "ard": 397,
      "Ġback": 398,
      "um": 399,
      "ak": 400,
      "Ġex": 401,
      "ice": 402,
      "qu": 403,
      "Ġlook": 404,
      "Ġcom": 405,
      "itt": 406,
      "Ġse": 407,
      "ick": 408,
      "thing": 409,
      "Ġhad": 410,
      "lf": 411,
      "Ġwill": 412,
      "Ġtalk": 413,
      "ation": 414,
      "Ġsomet": 415,
      "Ġgood": 416,
      "Ġdidn": 417,
      "ĠWhe": 418,
      "ure": 419,
      "ĠWhy": 420,
      "Ġtoo": 421,
      "ĠShe": 422,
      "Ġoff": 423,
      "ous": 424,
      "nt": 425,
      "ĠSo": 426,
      "hi": 427,
      "Ġcon": 428,
      "ĠDo": 429,
      "Ġwhen": 430,
      "are": 431,
      "be": 432,
      "Ġway": 433,
      "Ġ\"": 434,
      "Ġpro": 435,
      "Ġsp": 436,
      "ort": 437,
      "Ġsomething": 438,
      "Ġnever": 439,
      "Ġint": 440,
      "Ġhow": 441,
      "Ġag": 442,
      "el": 443,
      "ody": 444,
      "Ġcome": 445,
      "Ġneed": 446,
      "Ġtake": 447,
      "ĠK": 448,
      "Ġcall": 449,
      "Ġwork": 450,
      "Ġevery": 451,
      "ble": 452,
      "ose": 453,
      "Ġtw": 454,
      "ĠDon": 455,
      "ause": 456,
      "ittle": 457,
      "ĠIf": 458,
      "ĠThis": 459,
      "Ġ'": 460,
      "Ġhapp": 461,
      "ty": 462,
      "Ġdown": 463,
      "res": 464,
      "Ġmake": 465,
      "ĠMr": 466,
      "kay": 467,
      "ew": 468,
      "ĠNot": 469,
      "Ġover": 470,
      "ap": 471,
      "eop": 472,
      "ase": 473,
      "ff": 474,
      "Ġlittle": 475,
      "onna": 476,
      "Ġfuck": 477,
      "ide": 478,
      "eople": 479,
      "Ġmore": 480,
      "ber": 481,
      "Ġdoes": 482,
      "Ġgonna": 483,
      "ace": 484,
      "ought": 485,
      "Ġshould": 486,
      "Ġsaid": 487,
      "body": 488,
      "aybe": 489,
      "Ġv": 490,
      "self": 491,
      "Ġam": 492,
      "Ġreally": 493,
      "Ġguy": 494,
      "Ġlet": 495,
      "ĠThere": 496,
      "oy": 497,
      "ect": 498,
      "ag": 499,
      "Ġmu": 500,
      "reat": 501,
      "Ġkill": 502,
      "Ġthan": 503,
      "Ġtr": 504,
      "Ġour": 505,
      "Ġhas": 506,
      "Ġpeople": 507,
      "Ġbet": 508,
      "cause": 509,
      "</": 510,
      "Ġwon": 511,
      "Ġlove": 512,
      "nder": 513,
      "Ġmo": 514,
      "iss": 515,
      "Ġby": 516,
      "Ġ<": 517,
      "ĠSt": 518,
      "oney": 519,
      "Ġqu": 520,
      "Ġcl": 521,
      "Ġthen": 522,
      "th": 523,
      "Ġmuch": 524,
      "ĠU": 525,
      "ĠĠĠĠ": 526,
      "ree": 527,
      "Ġhappen": 528,
      "Ġonly": 529,
      "Ġday": 530,
      "ud": 531,
      "Ġaf": 532,
      "¿½": 533,
      "ï¿½": 534,
      "ving": 535,
      "Ġwhy": 536,
      "ĠWhere": 537,
      "Ġyear": 538,
      "ĠWho": 539,
      "eel": 540,
      "Ġbl": 541,
      "Ġwhere": 542,
      "ĠIs": 543,
      "ound": 544,
      "Ġvery": 545,
      "ity": 546,
      "Ġunder": 547,
      "ite": 548,
      "lie": 549,
      "round": 550,
      "Ġen": 551,
      "ies": 552,
      "Ġsc": 553,
      "ough": 554,
      "Ġwr": 555,
      "Ġlea": 556,
      "ĠV": 557,
      "Ġco": 558,
      "Ġother": 559,
      "Ġthought": 560,
      "orry": 561,
      "ĠMy": 562,
      "ny": 563,
      "Ġask": 564,
      "ob": 565,
      "eep": 566,
      "Ġeven": 567,
      "Ġsure": 568,
      "ĠJust": 569,
      "pl": 570,
      "riend": 571,
      "Ġanything": 572,
      "Ġfeel": 573,
      "ĠNow": 574,
      "Ġle": 575,
      "Ġro": 576,
      "Ġgive": 577,
      "Ġtwo": 578,
      "lp": 579,
      "ta": 580,
      "ue": 581,
      "Ġinto": 582,
      "ks": 583,
      "Ġnight": 584,
      "fore": 585,
      "ull": 586,
      "ep": 587,
      "ting": 588,
      "ait": 589,
      "Ġdoing": 590,
      "ning": 591,
      "Ġagain": 592,
      "Ġfind": 593,
      "Ġtry": 594,
      "ather": 595,
      "ac": 596,
      "irst": 597,
      "ass": 598,
      "Ġlife": 599,
      "Ġlong": 600,
      "Ġever": 601,
      "Ġhelp": 602,
      "ish": 603,
      "Ġmoney": 604,
      "per": 605,
      "ady": 606,
      "Ġtold": 607,
      "ment": 608,
      "ret": 609,
      "row": 610,
      "Ġaround": 611,
      "ade": 612,
      "ire": 613,
      "Ġbr": 614,
      "ne": 615,
      "Ġbefore": 616,
      "ĠAre": 617,
      "Ġbelie": 618,
      "ran": 619,
      "Ġgir": 620,
      "ways": 621,
      "Ġthings": 622,
      "ĠDid": 623,
      "get": 624,
      "Ġim": 625,
      "ĠIn": 626,
      "ave": 627,
      "Ġmust": 628,
      "Ġstill": 629,
      "iz": 630,
      "Ġput": 631,
      "Ġbelieve": 632,
      "ĠBe": 633,
      "ĠLook": 634,
      "ool": 635,
      "ĠAll": 636,
      "Ġfriend": 637,
      "ĠLet": 638,
      "age": 639,
      "Ġkind": 640,
      "ĠGod": 641,
      "lease": 642,
      "Ġyears": 643,
      "Ġcar": 644,
      "Ġbetter": 645,
      "Ġpo": 646,
      "ci": 647,
      "Ġsorry": 648,
      "Ġkid": 649,
      "act": 650,
      "Ġrem": 651,
      "ĠThen": 652,
      "Ġhu": 653,
      "Ġun": 654,
      "Ġlast": 655,
      "Ġwell": 656,
      "Ġaway": 657,
      "Ġsir": 658,
      "Ġalways": 659,
      "Ġgirl": 660,
      "Ġold": 661,
      "Ġar": 662,
      "ond": 663,
      "Ġpart": 664,
      "ried": 665,
      "ress": 666,
      "Ġafter": 667,
      "ĠMaybe": 668,
      "Ġfirst": 669,
      "ord": 670,
      "urn": 671,
      "ft": 672,
      "Ġcare": 673,
      "Ġkeep": 674,
      "Ġcour": 675,
      "Ġname": 676,
      "stand": 677,
      "isten": 678,
      "Ġplace": 679,
      "Ġreal": 680,
      "ix": 681,
      "Ġlot": 682,
      "Ġcou": 683,
      "Ġthese": 684,
      "ĠOkay": 685,
      "ng": 686,
      "Ġtheir": 687,
      "ise": 688,
      "Ġhome": 689,
      "Ġchan": 690,
      "Ġnothing": 691,
      "ĠThan": 692,
      "pt": 693,
      "Ġmin": 694,
      "day": 695,
      "Ġthose": 696,
      "Ġwhi": 697,
      "Ġnew": 698,
      "int": 699,
      "Ġbig": 700,
      "ĠCh": 701,
      "Ġdoesn": 702,
      "Ġass": 703,
      "ember": 704,
      "ĠWhen": 705,
      "Ġbad": 706,
      "ĠCan": 707,
      "Ġbecause": 708,
      "ach": 709,
      "Ġmar": 710,
      "Ġlive": 711,
      "Ġunderstand": 712,
      "ĠJo": 713,
      "ory": 714,
      "Ġsw": 715,
      "ouse": 716,
      "Ġel": 717,
      "ĠYour": 718,
      "Ġ.": 719,
      "atch": 720,
      "Ġstart": 721,
      "har": 722,
      "Ġhand": 723,
      "der": 724,
      "ĠHey": 725,
      "Ġbu": 726,
      "sp": 727,
      "Ġsm": 728,
      "ĠGood": 729,
      "ary": 730,
      "dd": 731,
      "Ġac": 732,
      "Ġplay": 733,
      "Ġokay": 734,
      "Ġdr": 735,
      "man": 736,
      "Ġshit": 737,
      "Ġhell": 738,
      "Ġboy": 739,
      "Ġisn": 740,
      "Ġsupp": 741,
      "Ġbus": 742,
      "Ġhear": 743,
      "able": 744,
      "Ġgreat": 745,
      "Ġtalking": 746,
      "Ġcourse": 747,
      "ever": 748,
      "Ġdis": 749,
      "Ġwait": 750,
      "Ġwouldn": 751,
      "Ġrun": 752,
      "ip": 753,
      "Ġelse": 754,
      "ater": 755,
      "Ġmight": 756,
      "ute": 757,
      "Ġown": 758,
      "ike": 759,
      "ĠFor": 760,
      "Ġdead": 761,
      "ful": 762,
      "amn": 763,
      "Ġguess": 764,
      "ĠRe": 765,
      "Ġact": 766,
      "Ġfl": 767,
      "Ġmade": 768,
      "Ġwrong": 769,
      "Ġstay": 770,
      "Ġwanted": 771,
      "Ġstu": 772,
      "Ġwom": 773,
      "Ġsec": 774,
      "og": 775,
      "si": 776,
      "Ġeverything": 777,
      "Ġshow": 778,
      "aw": 779,
      "old": 780,
      "Ġper": 781,
      "hed": 782,
      "een": 783,
      "Ġhappened": 784,
      "Ġmind": 785,
      "ock": 786,
      "aking": 787,
      "rough": 788,
      "Ġleave": 789,
      "Ġche": 790,
      "ence": 791,
      "atter": 792,
      "ars": 793,
      "Ġyourself": 794,
      "tain": 795,
      "Ġhar": 796,
      "Ġenough": 797,
      "Ġpr": 798,
      "av": 799,
      "Ġremember": 800,
      "Ġid": 801,
      "Ġthrough": 802,
      "ious": 803,
      "ren": 804,
      "Ġdone": 805,
      "Ġjob": 806,
      "ĠSh": 807,
      "ĠCome": 808,
      "ign": 809,
      "imes": 810,
      "Ġcra": 811,
      "Ġtra": 812,
      "Ġain": 813,
      "ife": 814,
      "Ġimp": 815,
      "Ġhead": 816,
      "ict": 817,
      "Ġhouse": 818,
      "Ġwasn": 819,
      "ions": 820,
      "Ġwee": 821,
      "Ġgotta": 822,
      "ans": 823,
      "ĠAl": 824,
      "Ġcame": 825,
      "?!": 826,
      ".\"": 827,
      "ps": 828,
      "Ġleft": 829,
      "Ġthree": 830,
      "ger": 831,
      "ance": 832,
      "Ġyes": 833,
      "iness": 834,
      "Ġworld": 835,
      "Ġgetting": 836,
      "ĠĠĠĠĠĠĠĠ": 837,
      "ath": 838,
      "Ġmaybe": 839,
      "ple": 840,
      "akes": 841,
      "Ġfucking": 842,
      "Ġfather": 843,
      "erson": 844,
      "Ġbeing": 845,
      "Ġsaw": 846,
      "ub": 847,
      "....": 848,
      "rest": 849,
      "my": 850,
      "Ġknew": 851,
      "ms": 852,
      "here": 853,
      "ail": 854,
      "ĠAn": 855,
      "Ġroom": 856,
      "Ġmother": 857,
      "mer": 858,
      "Ġanother": 859,
      "Ġtrying": 860,
      "pe": 861,
      "Ġsomeone": 862,
      "Ġwent": 863,
      "Ġsho": 864,
      "Ġmon": 865,
      "oll": 866,
      "pen": 867,
      "ost": 868,
      "Ġser": 869,
      "Ġheard": 870,
      "ner": 871,
      "ĠGo": 872,
      "Ġdif": 873,
      "Ġrec": 874,
      "Ġra": 875,
      "Ġmatter": 876,
      "enty": 877,
      "Ġpret": 878,
      "Ġmor": 879,
      "ince": 880,
      "ctor": 881,
      "Ġwhole": 882,
      "ĠGet": 883,
      "...?": 884,
      "ia": 885,
      "hn": 886,
      "side": 887,
      "ved": 888,
      "dy": 889,
      "Ġnice": 890,
      "Ġmeet": 891,
      "Ġseen": 892,
      "Ġad": 893,
      "ark": 894,
      "orrow": 895,
      "onight": 896,
      "osed": 897,
      "ĠSure": 898,
      "ated": 899,
      "Ġhard": 900,
      "Ġsame": 901,
      "air": 902,
      "xt": 903,
      "ons": 904,
      "Ġsl": 905,
      "urt": 906,
      "Ġbusiness": 907,
      "orm": 908,
      "leep": 909,
      "Ġguys": 910,
      "ily": 911,
      "ied": 912,
      "Ġword": 913,
      "Ġperson": 914,
      "Ġhaven": 915,
      "ĠOf": 916,
      "ĠJohn": 917,
      "Ġlooking": 918,
      "Ġapp": 919,
      "Ġcoming": 920,
      "les": 921,
      "Ġstop": 922,
      "ĠSome": 923,
      "Ġquest": 924,
      "ey": 925,
      "!!": 926,
      "Ġused": 927,
      "ĠEvery": 928,
      "Ġproble": 929,
      "ndred": 930,
      "Ġfine": 931,
      "Ġsha": 932,
      "Ġfun": 933,
      "ĠOn": 934,
      "Ġturn": 935,
      "ru": 936,
      "ĠAs": 937,
      "Ġhour": 938,
      "ually": 939,
      "Ġplan": 940,
      "Ġph": 941,
      "Ġkilled": 942,
      "ĠRight": 943,
      "arl": 944,
      "Ġidea": 945,
      "Ġbest": 946,
      "Ġgr": 947,
      "ĠTo": 948,
      "ĠBecause": 949,
      "ĠAny": 950,
      "Ġdeal": 951,
      "eet": 952,
      "Ġfam": 953,
      "Ġpos": 954,
      "ĠLike": 955,
      "ĠTell": 956,
      "ian": 957,
      "gg": 958,
      "Ġpay": 959,
      "hes": 960,
      "reak": 961,
      "Ġhat": 962,
      "ident": 963,
      "Ġtonight": 964,
      "Ġatt": 965,
      "Ġcalled": 966,
      "Ġplease": 967,
      "Ġmiss": 968,
      "igh": 969,
      "Ġwalk": 970,
      "ĠUh": 971,
      "Ġmany": 972,
      "mm": 973,
      "Ġbit": 974,
      "oth": 975,
      "zy": 976,
      "Ġmyself": 977,
      "Ġwife": 978,
      "uh": 979,
      "Ġfound": 980,
      "Ġcouldn": 981,
      "Ġread": 982,
      "Ġacc": 983,
      "Ġwoman": 984,
      "Ġhop": 985,
      "ably": 986,
      "ream": 987,
      "ax": 988,
      "Ġbab": 989,
      "Ġcle": 990,
      "Ġcomp": 991,
      "Ġmen": 992,
      "ors": 993,
      "Ġpretty": 994,
      "ister": 995,
      "iv": 996,
      "ĠHell": 997,
      "Ġsaying": 998,
      "Ġdiffe": 999,
      "ĠThank": 1000,
      "Ġhundred": 1001,
      "Ġsays": 1002,
      "Ġsch": 1003,
      "Ġpol": 1004,
      "gether": 1005,
      "ĠWill": 1006,
      "ical": 1007,
      "Ġstuff": 1008,
      "Ġbo": 1009,
      "Ġchi": 1010,
      "Ġfew": 1011,
      "Ġend": 1012,
      "ready": 1013,
      "Ġya": 1014,
      "Ġuse": 1015,
      "ĠEx": 1016,
      "rist": 1017,
      "aught": 1018,
      "Ġlisten": 1019,
      "Ġfin": 1020,
      "Ġmay": 1021,
      "ense": 1022,
      "Ġago": 1023,
      "Ġson": 1024,
      "Ġdes": 1025,
      "Ġcr": 1026,
      "Ġmorning": 1027,
      "Ġsur": 1028,
      "uth": 1029,
      "Ġwar": 1030,
      "Ġalready": 1031,
      "Ġpre": 1032,
      "Ġdri": 1033,
      "Ġtogether": 1034,
      "ason": 1035,
      "Ġwhile": 1036,
      "Ġgl": 1037,
      "Ġcont": 1038,
      "Ġ1": 1039,
      "Ġyet": 1040,
      "ĠFran": 1041,
      "bably": 1042,
      "Ġtow": 1043,
      "Ġtri": 1044,
      "anna": 1045,
      "ĠDe": 1046,
      "Ġcount": 1047,
      "Ġpoint": 1048,
      "ye": 1049,
      "Ġtom": 1050,
      "Ġset": 1051,
      "Ġwithout": 1052,
      "ĠPlease": 1053,
      "ĠCl": 1054,
      "Ġmost": 1055,
      "ĠOne": 1056,
      "Ġdays": 1057,
      "Ġweek": 1058,
      "Ġschool": 1059,
      "ĠMe": 1060,
      "ĠOr": 1061,
      "ild": 1062,
      "ves": 1063,
      "Ġnext": 1064,
      "pped": 1065,
      "raid": 1066,
      "Ġcha": 1067,
      "ss": 1068,
      "Ġdrink": 1069,
      "ating": 1070,
      "ĠHave": 1071,
      "erest": 1072,
      "Ġpick": 1073,
      "no": 1074,
      "ract": 1075,
      "Ġhuh": 1076,
      "Ġsit": 1077,
      "Ġrest": 1078,
      "ations": 1079,
      "Ġtook": 1080,
      "Ġsleep": 1081,
      "Ġch": 1082,
      "ĠTw": 1083,
      "Ġchild": 1084,
      "less": 1085,
      "Ġexp": 1086,
      "Ġrep": 1087,
      "Ġtomorrow": 1088,
      "ĠDad": 1089,
      "Ġcrazy": 1090,
      "ired": 1091,
      "ird": 1092,
      "where": 1093,
      "sw": 1094,
      "Ġbring": 1095,
      "Ġfive": 1096,
      "Ġmet": 1097,
      "ĠBr": 1098,
      "Ġfriends": 1099,
      "Ġwants": 1100,
      "ins": 1101,
      "Ġwatch": 1102,
      "Ġalone": 1103,
      "Ġstand": 1104,
      "ah": 1105,
      "rent": 1106,
      "ĠJes": 1107,
      "ousand": 1108,
      "up": 1109,
      "Ġopen": 1110,
      "ont": 1111,
      "Ġdoll": 1112,
      "de": 1113,
      "Ġyeah": 1114,
      "actly": 1115,
      "Ġfar": 1116,
      "ĠNothing": 1117,
      "Ġproblem": 1118,
      "Ġonce": 1119,
      "Ġminute": 1120,
      "ntil": 1121,
      "Ġmonth": 1122,
      "Ġworry": 1123,
      "Ġbaby": 1124,
      "ĠChrist": 1125,
      "Ġgone": 1126,
      "Ġdec": 1127,
      "ition": 1128,
      "Ġafraid": 1129,
      "Ġsix": 1130,
      "Ġmom": 1131,
      "ize": 1132,
      "orn": 1133,
      "ower": 1134,
      "sh": 1135,
      "Ġten": 1136,
      "Ġcase": 1137,
      "Ġlate": 1138,
      "ĠListen": 1139,
      "eak": 1140,
      "Ġinterest": 1141,
      "ug": 1142,
      "Ġwonder": 1143,
      "Ġknows": 1144,
      "Ġbrother": 1145,
      "ĠThanks": 1146,
      "you": 1147,
      "Ġsince": 1148,
      "aut": 1149,
      "ither": 1150,
      "Ġtoday": 1151,
      "Ġfig": 1152,
      "ĠAt": 1153,
      "cept": 1154,
      "ery": 1155,
      "Ġsupposed": 1156,
      "Ġthinking": 1157,
      "Ġcomm": 1158,
      "ork": 1159,
      "fect": 1160,
      "asy": 1161,
      "Ġsuch": 1162,
      "Ġhurt": 1163,
      "Ġgun": 1164,
      "ash": 1165,
      "utes": 1166,
      "ott": 1167,
      "Ġthousand": 1168,
      "ĠJack": 1169,
      "Ġanyone": 1170,
      "Ġter": 1171,
      "Ġbook": 1172,
      "Ġfour": 1173,
      "ying": 1174,
      "rew": 1175,
      "vel": 1176,
      "Ġwhich": 1177,
      "ness": 1178,
      "Ġdie": 1179,
      "ces": 1180,
      "Ġhope": 1181,
      "ĠMar": 1182,
      "Ġuh": 1183,
      "Ġbreak": 1184,
      "ens": 1185,
      "ĠJesus": 1186,
      "sible": 1187,
      "ĠSee": 1188,
      "ĠMiss": 1189,
      "Ġri": 1190,
      "use": 1191,
      "Ġhalf": 1192,
      "Ġsecond": 1193,
      "az": 1194,
      "ĠSomet": 1195,
      "ump": 1196,
      "Ġstory": 1197,
      "Ġshot": 1198,
      "Ġhold": 1199,
      "Ġsound": 1200,
      "Ġinv": 1201,
      "ared": 1202,
      "Ġtrou": 1203,
      "Ġpri": 1204,
      "Ġprobably": 1205,
      "Ġminutes": 1206,
      "Ġcheck": 1207,
      "Ġem": 1208,
      "cy": 1209,
      "ĠMrs": 1210,
      "Ġwanna": 1211,
      "Ġcop": 1212,
      "ings": 1213,
      "aul": 1214,
      "ĠDr": 1215,
      "Ġmakes": 1216,
      "ĠHere": 1217,
      "Ġbeaut": 1218,
      "ile": 1219,
      "Ġhit": 1220,
      "Ġface": 1221,
      "Ġuntil": 1222,
      "Ġquestion": 1223,
      "ual": 1224,
      "Ġprom": 1225,
      "ĠCom": 1226,
      "Ġmarried": 1227,
      "Ġfamily": 1228,
      "Ġworking": 1229,
      "Ġfight": 1230,
      "ĠWould": 1231,
      "ĠHar": 1232,
      "Ġtrue": 1233,
      "ĠNew": 1234,
      "ank": 1235,
      "Ġtown": 1236,
      "Ġsoon": 1237,
      "Ġsomebody": 1238,
      "Ġte": 1239,
      "Ġhot": 1240,
      "Ġcompl": 1241,
      "ertain": 1242,
      "iful": 1243,
      "ount": 1244,
      "Ġgave": 1245,
      "more": 1246,
      "Ġwh": 1247,
      "ang": 1248,
      "ĠSe": 1249,
      "Ġbed": 1250,
      "Ġyoung": 1251,
      "med": 1252,
      "unch": 1253,
      "ial": 1254,
      "Ġap": 1255,
      "Ġeat": 1256,
      "Ġlost": 1257,
      "ned": 1258,
      "Ġdifferent": 1259,
      "head": 1260,
      "Ġleast": 1261,
      "Ġkids": 1262,
      "ĠAb": 1263,
      "Ġasked": 1264,
      "Ġmove": 1265,
      "cl": 1266,
      "me": 1267,
      "yes": 1268,
      "Ġjo": 1269,
      "Ġ?": 1270,
      "irty": 1271,
      "Ġdamn": 1272,
      "Ġcut": 1273,
      "Ġheart": 1274,
      "ĠSp": 1275,
      "aid": 1276,
      "00": 1277,
      "sy": 1278,
      "Ġdoor": 1279,
      "Ġimport": 1280,
      "Ġlaw": 1281,
      "ĠUn": 1282,
      "Ġresp": 1283,
      "Ġpass": 1284,
      "Ġgets": 1285,
      "Ġrel": 1286,
      "ents": 1287,
      "ĠWait": 1288,
      "cial": 1289,
      "Ġreason": 1290,
      "Ġtrouble": 1291,
      "ier": 1292,
      "so": 1293,
      "Ġhate": 1294,
      "Ġansw": 1295,
      "ollow": 1296,
      "Ġphone": 1297,
      "Ġexactly": 1298,
      "the": 1299,
      "Ġhaving": 1300,
      "Ġluck": 1301,
      "Ġtwenty": 1302,
      "ĠAr": 1303,
      "Ġev": 1304,
      "Ġdream": 1305,
      "son": 1306,
      "ames": 1307,
      "Ġanyway": 1308,
      "ĠTake": 1309,
      "ĠLe": 1310,
      "ĠBl": 1311,
      "Ġnum": 1312,
      "Ġpolice": 1313,
      "Ġaw": 1314,
      "Ġmill": 1315,
      "Ġfact": 1316,
      "Ġaren": 1317,
      "Ġeach": 1318,
      "Ġexpl": 1319,
      "Ġfuckin": 1320,
      "Ġtimes": 1321,
      "reet": 1322,
      "ĠWith": 1323,
      "Ġfif": 1324,
      "Ġspe": 1325,
      "Ġob": 1326,
      "Ġanymore": 1327,
      "ĠHello": 1328,
      "io": 1329,
      "Ġwish": 1330,
      "Ġent": 1331,
      "ĠWas": 1332,
      "pr": 1333,
      "Ġcho": 1334,
      "ention": 1335,
      "unk": 1336,
      "Ġdollars": 1337,
      "Ġtrust": 1338,
      "Ġimportant": 1339,
      "Ġhappy": 1340,
      "Ġboth": 1341,
      "Ġchance": 1342,
      "Ġchange": 1343,
      "ged": 1344,
      "ĠTom": 1345,
      "Ġsign": 1346,
      "Ġins": 1347,
      "outh": 1348,
      "ph": 1349,
      "Ġhum": 1350,
      "ĠReally": 1351,
      "Ġgi": 1352,
      "its": 1353,
      "Ġhours": 1354,
      "Ġforget": 1355,
      "ult": 1356,
      "vie": 1357,
      "Ġserious": 1358,
      "Ġinf": 1359,
      "Ġtelling": 1360,
      "cc": 1361,
      "Ġcouple": 1362,
      "Ġexpect": 1363,
      "iet": 1364,
      "Ġmaking": 1365,
      "Ġcomes": 1366,
      "Ġbeautiful": 1367,
      "ĠFrank": 1368,
      "ced": 1369,
      "Ġanybody": 1370,
      "Ġsk": 1371,
      "Ġtaking": 1372,
      "icture": 1373,
      "Ġclose": 1374,
      "Ġfr": 1375,
      "Ġbeg": 1376,
      "ĠSorry": 1377,
      "ding": 1378,
      "Ġdro": 1379,
      "ĠMa": 1380,
      "ove": 1381,
      "Ġmine": 1382,
      "ĠFuck": 1383,
      "ĠHi": 1384,
      "land": 1385,
      "Ġtruth": 1386,
      "Ġlight": 1387,
      "ĠChar": 1388,
      "Ġhigh": 1389,
      "che": 1390,
      "Ġlear": 1391,
      "Ġready": 1392,
      "cer": 1393,
      "ĠNe": 1394,
      "Ġyours": 1395,
      "ison": 1396,
      "ĠDoes": 1397,
      "ete": 1398,
      "come": 1399,
      "ole": 1400,
      "Ġside": 1401,
      "Ġpull": 1402,
      "ates": 1403,
      "Ġconf": 1404,
      "ross": 1405,
      "Ġbro": 1406,
      "Ġgoes": 1407,
      "Ġblood": 1408,
      "Ġbra": 1409,
      "Ġsend": 1410,
      "----": 1411,
      "app": 1412,
      "Ġshoot": 1413,
      "Ġquite": 1414,
      "ĠSc": 1415,
      "Ġeasy": 1416,
      "ĠCap": 1417,
      "Ġlater": 1418,
      "Ġpicture": 1419,
      "Ġbuy": 1420,
      "Ġbody": 1421,
      "Ġeyes": 1422,
      "Ġdeath": 1423,
      "Ġmur": 1424,
      "Ġtried": 1425,
      "Ġfollow": 1426,
      "Ġhon": 1427,
      "Ġlooks": 1428,
      "eral": 1429,
      "ĠGe": 1430,
      "ards": 1431,
      "du": 1432,
      "ane": 1433,
      "now": 1434,
      "led": 1435,
      "Ġdep": 1436,
      "Ġtou": 1437,
      "Ġmess": 1438,
      "Ġinst": 1439,
      "att": 1440,
      "hh": 1441,
      "Ġdisc": 1442,
      "hin": 1443,
      "Ġsick": 1444,
      "Ġchar": 1445,
      "Ġsort": 1446,
      "Ġmeans": 1447,
      "Ġres": 1448,
      "Ġdoctor": 1449,
      "'.": 1450,
      "ĠSu": 1451,
      "ude": 1452,
      "Ġhands": 1453,
      "OU": 1454,
      "band": 1455,
      "Ġagainst": 1456,
      "most": 1457,
      "ling": 1458,
      "meric": 1459,
      "amp": 1460,
      "Ġbull": 1461,
      "ction": 1462,
      "ĠQ": 1463,
      "Ġsent": 1464,
      "Ġfell": 1465,
      "Ġair": 1466,
      "Ġcor": 1467,
      "Ġfire": 1468,
      "Ġsex": 1469,
      "Ġcountry": 1470,
      "Ġwater": 1471,
      "Ġdan": 1472,
      "ĠMom": 1473,
      "ient": 1474,
      "ject": 1475,
      "kes": 1476,
      "itch": 1477,
      "Ġthough": 1478,
      "ĠHis": 1479,
      "usband": 1480,
      "ĠMan": 1481,
      "Ġthank": 1482,
      "pid": 1483,
      "inner": 1484,
      "als": 1485,
      "ung": 1486,
      "vers": 1487,
      "cent": 1488,
      "iles": 1489,
      "Ġgame": 1490,
      "Ġpie": 1491,
      "Ġgodd": 1492,
      "ton": 1493,
      "Ġsy": 1494,
      "Ġinside": 1495,
      "Ġspeak": 1496,
      "Ġship": 1497,
      "olog": 1498,
      "Ġfree": 1499,
      "Ġmillion": 1500,
      "Ġpower": 1501,
      "ĠAf": 1502,
      "Ġstra": 1503,
      "ĠJe": 1504,
      "artment": 1505,
      "lic": 1506,
      "Ġï¿½": 1507,
      "Ġdog": 1508,
      "ĠBet": 1509,
      "Ġalong": 1510,
      "ĠTwo": 1511,
      "Ġmonths": 1512,
      "Ġsim": 1513,
      "arly": 1514,
      "Ġeight": 1515,
      "Ġfull": 1516,
      "arent": 1517,
      "cuse": 1518,
      "ley": 1519,
      "ĠAmeric": 1520,
      "Ġhusband": 1521,
      "sel": 1522,
      "Ġpap": 1523,
      "Ġret": 1524,
      "ween": 1525,
      "ĠBill": 1526,
      "hind": 1527,
      "ĠĠĠĠĠĠĠĠĠĠĠĠĠĠĠĠ": 1528,
      "idd": 1529,
      "shit": 1530,
      "unt": 1531,
      "ĠAm": 1532,
      "ĠGr": 1533,
      "Ġdied": 1534,
      "Ġcertain": 1535,
      "Ġinter": 1536,
      "ĠJim": 1537,
      "Ġwaiting": 1538,
      "not": 1539,
      "ĠZ": 1540,
      "Ġsuppose": 1541,
      "Ġfigure": 1542,
      "ides": 1543,
      "Ġanswer": 1544,
      "ĠPro": 1545,
      "ured": 1546,
      "orge": 1547,
      "bb": 1548,
      "ets": 1549,
      "Ġactually": 1550,
      "Ġstupid": 1551,
      "Ġeither": 1552,
      "Ġdad": 1553,
      "ised": 1554,
      "Ġoffice": 1555,
      "Ġeverybody": 1556,
      "Ġparty": 1557,
      "teen": 1558,
      "umb": 1559,
      "Ġfunny": 1560,
      "ital": 1561,
      "Ġcoll": 1562,
      "ler": 1563,
      "ĠHuh": 1564,
      "Ġpres": 1565,
      "Ġnumber": 1566,
      "Ġstr": 1567,
      "ator": 1568,
      "Ġforg": 1569,
      "any": 1570,
      "Ġhimself": 1571,
      "Ġfav": 1572,
      "aken": 1573,
      "Ġwind": 1574,
      "Ġ*": 1575,
      "ines": 1576,
      "ĠNever": 1577,
      "ched": 1578,
      "Ġbehind": 1579,
      "Ġwear": 1580,
      "Ġalive": 1581,
      "Ġwomen": 1582,
      "oke": 1583,
      "Ġstarted": 1584,
      "Ġsense": 1585,
      "Ġleg": 1586,
      "cle": 1587,
      "Ġma": 1588,
      "erv": 1589,
      "oss": 1590,
      "Ġrecord": 1591,
      "ĠGot": 1592,
      "Ġseem": 1593,
      "ĠTH": 1594,
      "ony": 1595,
      "ĠCaptain": 1596,
      "Ġele": 1597,
      "ield": 1598,
      "Ġ2": 1599,
      "Ġdet": 1600,
      "ĠGive": 1601,
      "ĠBob": 1602,
      "Ġsub": 1603,
      "ert": 1604,
      "Ġbetween": 1605,
      "Ġsecret": 1606,
      "ster": 1607,
      "ĠSir": 1608,
      "Ġfall": 1609,
      "Ġrunning": 1610,
      "Ġbar": 1611,
      "Ġline": 1612,
      "ote": 1613,
      "Ġfast": 1614,
      "ĠMay": 1615,
      "aughter": 1616,
      "ĠBar": 1617,
      "Ġliving": 1618,
      "Ġtea": 1619,
      "ĠNobody": 1620,
      "Ġexper": 1621,
      "Ġcons": 1622,
      "Ġable": 1623,
      "ER": 1624,
      "ĠCould": 1625,
      "ative": 1626,
      "Ġreg": 1627,
      "haps": 1628,
      "ĠWhi": 1629,
      "Ġpain": 1630,
      "Ġscared": 1631,
      "ĠPer": 1632,
      "Ġgoddamn": 1633,
      "Ġdra": 1634,
      "Ġhoney": 1635,
      "ĠSay": 1636,
      "ĠAh": 1637,
      "ĠHer": 1638,
      "Ġnobody": 1639,
      "Ġdef": 1640,
      "Ġsafe": 1641,
      "range": 1642,
      "te": 1643,
      "ĠGeorge": 1644,
      "Ġrid": 1645,
      "ience": 1646,
      "Ġsing": 1647,
      "ĠBen": 1648,
      "Ġshouldn": 1649,
      "ters": 1650,
      "Ġterri": 1651,
      "ished": 1652,
      "Ġahead": 1653,
      "Ġshut": 1654,
      "hip": 1655,
      "Ġmoment": 1656,
      "Ġmus": 1657,
      "Ġsweet": 1658,
      "ited": 1659,
      "ĠEl": 1660,
      "Ġhappens": 1661,
      "ined": 1662,
      "rought": 1663,
      "Ġdinner": 1664,
      "to": 1665,
      "osp": 1666,
      "cks": 1667,
      "ĠSomething": 1668,
      "rence": 1669,
      "Ġstud": 1670,
      "Ġblack": 1671,
      "Ġhair": 1672,
      "ats": 1673,
      "ĠSam": 1674,
      "Ġhang": 1675,
      "Ġlead": 1676,
      "ĠAbout": 1677,
      "Ġalmost": 1678,
      "Ġfeeling": 1679,
      "Ġeveryone": 1680,
      "Ġnews": 1681,
      "Ġclean": 1682,
      "Ġdrive": 1683,
      "ĠGu": 1684,
      "rol": 1685,
      "eal": 1686,
      "ĠVery": 1687,
      "Ġbuild": 1688,
      "Ġfront": 1689,
      "Ġtest": 1690,
      "Ġworth": 1691,
      "Ġgra": 1692,
      "Ġpat": 1693,
      "ram": 1694,
      "itting": 1695,
      "Ġasking": 1696,
      "Ġadv": 1697,
      "ĠOnly": 1698,
      "Ġmem": 1699,
      "Ġhor": 1700,
      "Ġbrought": 1701,
      "Ġstreet": 1702,
      "Ġchildren": 1703,
      "ĠYork": 1704,
      "ten": 1705,
      "ked": 1706,
      "Ġwrite": 1707,
      "Ġsister": 1708,
      "Ġdou": 1709,
      "Ġweeks": 1710,
      "ric": 1711,
      "leas": 1712,
      "Ġgen": 1713,
      "Ġfavor": 1714,
      "Ġwin": 1715,
      "Ġalso": 1716,
      "Ġtouch": 1717,
      "Ġstraight": 1718,
      "ĠFine": 1719,
      "cess": 1720,
      "ĠAfter": 1721,
      "Ġmist": 1722,
      "Ġlie": 1723,
      "Ġwhatever": 1724,
      "Ġweren": 1725,
      "Ġball": 1726,
      "ĠYOU": 1727,
      "Ġlose": 1728,
      "by": 1729,
      "mit": 1730,
      "Ġperfect": 1731,
      "atur": 1732,
      "Ġoutside": 1733,
      "Ġvis": 1734,
      "Ġfool": 1735,
      "Ġless": 1736,
      "co": 1737,
      "ility": 1738,
      "ĠEng": 1739,
      "ics": 1740,
      "ĠPres": 1741,
      "Ġext": 1742,
      "ney": 1743,
      "Ġinc": 1744,
      "Ġclass": 1745,
      "Ġmad": 1746,
      "ene": 1747,
      "omb": 1748,
      "king": 1749,
      "Ġdist": 1750,
      "Ġboys": 1751,
      "room": 1752,
      "Ġart": 1753,
      ".'": 1754,
      "ĠAd": 1755,
      "Ġsell": 1756,
      "IN": 1757,
      "ale": 1758,
      "Ġhuman": 1759,
      "vin": 1760,
      "Ġdaughter": 1761,
      "ĠQu": 1762,
      "oot": 1763,
      "sol": 1764,
      "Ġits": 1765,
      "Ġgirls": 1766,
      ">.": 1767,
      "Ġlives": 1768,
      "Ġtaken": 1769,
      "ush": 1770,
      "Ġdear": 1771,
      "mp": 1772,
      "Ġsmall": 1773,
      "Ġcap": 1774,
      "ĠWhich": 1775,
      "ĠMary": 1776,
      "Ġpossible": 1777,
      "ically": 1778,
      "Ġglad": 1779,
      "uff": 1780,
      "ĠPl": 1781,
      "Ġsurpr": 1782,
      "Ġseems": 1783,
      "Ġmovie": 1784,
      "ĠStop": 1785,
      "ounds": 1786,
      "Ġref": 1787,
      "sych": 1788,
      "cked": 1789,
      "ĉĉ": 1790,
      "icul": 1791,
      "uddy": 1792,
      "Ġlady": 1793,
      "Ġpast": 1794,
      "Ġfifty": 1795,
      "oor": 1796,
      "Ġexplain": 1797,
      "?\"": 1798,
      "sib": 1799,
      "Ġtap": 1800,
      "Ġdel": 1801,
      "Ġthanks": 1802,
      "ts": 1803,
      "Ġprot": 1804,
      "Ġdanger": 1805,
      "ama": 1806,
      "Ġdest": 1807,
      "Ġlau": 1808,
      "Ġreport": 1809,
      "vest": 1810,
      "Ġgrand": 1811,
      "ward": 1812,
      "Ġbel": 1813,
      "ĠEd": 1814,
      "ĠTr": 1815,
      "ib": 1816,
      "ĠCon": 1817,
      "ĠRem": 1818,
      "Ġthrow": 1819,
      "fort": 1820,
      "oc": 1821,
      "ze": 1822,
      "Ġcomplete": 1823,
      "iting": 1824,
      "Ġparent": 1825,
      "Ġalright": 1826,
      "Ġsomewhere": 1827,
      "Ġcold": 1828,
      "Ġdress": 1829,
      "Ġbuck": 1830,
      "Ġthinks": 1831,
      "ault": 1832,
      "ald": 1833,
      "nie": 1834,
      "Ġrad": 1835,
      "Ġneeds": 1836,
      "ature": 1837,
      "ĠGreat": 1838,
      "uss": 1839,
      "Ġtill": 1840,
      "Ġtired": 1841,
      "eter": 1842,
      "ief": 1843,
      "ospital": 1844,
      "Ġinform": 1845,
      "Ġwords": 1846,
      "ĠHarry": 1847,
      "Ġbeat": 1848,
      "Ġgoin": 1849,
      "Ġadd": 1850,
      "Ġlearn": 1851,
      "Ġpiece": 1852,
      "ĠPresident": 1853,
      "Ġmouth": 1854,
      "airs": 1855,
      "ches": 1856,
      "Ġcatch": 1857,
      "Ġorder": 1858,
      "Ġaccident": 1859,
      "pping": 1860,
      "ĠDan": 1861,
      "ĠWh": 1862,
      "ider": 1863,
      "Ġlooked": 1864,
      "ĠThese": 1865,
      "Ġknown": 1866,
      "Ġoffic": 1867,
      "Ġfood": 1868,
      "Ġkey": 1869,
      "arth": 1870,
      "Ġrather": 1871,
      "reen": 1872,
      "Ġimag": 1873,
      "go": 1874,
      "ĠEven": 1875,
      "Ġfil": 1876,
      "Ġran": 1877,
      "aster": 1878,
      "Ġcol": 1879,
      "Ġfore": 1880,
      "ior": 1881,
      "ĠShut": 1882,
      "Ġes": 1883,
      "ĠAg": 1884,
      "uts": 1885,
      "oul": 1886,
      "ows": 1887,
      "elt": 1888,
      "solute": 1889,
      "Ġleaving": 1890,
      "ept": 1891,
      "iam": 1892,
      "ĠChe": 1893,
      "Ġkidding": 1894,
      "Ġland": 1895,
      "Ġwhite": 1896,
      "Ġmed": 1897,
      "Ġdark": 1898,
      "ĠSw": 1899,
      "Ġworked": 1900,
      "fic": 1901,
      "stem": 1902,
      "eg": 1903,
      "Ġpsych": 1904,
      "Ġthirty": 1905,
      "ĠOur": 1906,
      "Ġtrain": 1907,
      "Ġclear": 1908,
      "Ġspecial": 1909,
      "ĠLou": 1910,
      "Ġworks": 1911,
      "Ġquestions": 1912,
      "selves": 1913,
      "Ġparents": 1914,
      "rying": 1915,
      "ession": 1916,
      "ĠShit": 1917,
      "Ġfix": 1918,
      "Ġsave": 1919,
      "ĠDidn": 1920,
      "oose": 1921,
      "?...": 1922,
      "ĠFrom": 1923,
      "Ġru": 1924,
      "Ġpromise": 1925,
      "Ġought": 1926,
      "ffee": 1927,
      "Ġpub": 1928,
      "Ġinterested": 1929,
      "ency": 1930,
      "Ġcalling": 1931,
      "ones": 1932,
      "Ġdire": 1933,
      "ĠMic": 1934,
      "ĠDoctor": 1935,
      "Ġcompany": 1936,
      "Ġwonderful": 1937,
      "ĠComm": 1938,
      "??": 1939,
      "ĠFirst": 1940,
      "ther": 1941,
      "idence": 1942,
      "ĠMart": 1943,
      "Ġcontrol": 1944,
      "Ġcool": 1945,
      "ized": 1946,
      "Ġdisapp": 1947,
      "Ġbitch": 1948,
      "ĠEverything": 1949,
      "ĠWal": 1950,
      "cher": 1951,
      "zz": 1952,
      "Ġmag": 1953,
      "ision": 1954,
      "ĠSm": 1955,
      "ĠDav": 1956,
      "ately": 1957,
      "Ġprotect": 1958,
      "'?": 1959,
      "Ġsqu": 1960,
      "lo": 1961,
      "Ġsn": 1962,
      "ĠMax": 1963,
      "ĠCar": 1964,
      "ists": 1965,
      "Ġprof": 1966,
      "ĠIsn": 1967,
      "Ġpersonal": 1968,
      "Ġbegin": 1969,
      "esides": 1970,
      "ĠMc": 1971,
      "hose": 1972,
      "what": 1973,
      "ants": 1974,
      "Ġsometimes": 1975,
      "Ġmeant": 1976,
      "Ġplaying": 1977,
      "iddle": 1978,
      "Ġpleas": 1979,
      "Ġpriv": 1980,
      "iver": 1981,
      "men": 1982,
      "jor": 1983,
      "Ġsal": 1984,
      "ots": 1985,
      "urs": 1986,
      "Ġfelt": 1987,
      "Ġlucky": 1988,
      "Ġhospital": 1989,
      "Ġstar": 1990,
      "ĠBy": 1991,
      "Ġpoor": 1992,
      "ĠPeople": 1993,
      "ĠExcuse": 1994,
      "Ġtreat": 1995,
      "Ġfly": 1996,
      "Ġoper": 1997,
      "Ġconcer": 1998,
      "Ġattack": 1999,
      "solutely": 2000,
      "ĠPaul": 2001,
      "Ġride": 2002,
      "bar": 2003,
      "Ġbother": 2004,
      "Ġtakes": 2005,
      "ĠCall": 2006,
      "Ġclot": 2007,
      "how": 2008,
      "ĠBig": 2009,
      "Ġsusp": 2010,
      "Ġwall": 2011,
      "Ġpar": 2012,
      "aste": 2013,
      "Ġexc": 2014,
      "but": 2015,
      "ible": 2016,
      "Ġdate": 2017,
      "ĠNick": 2018,
      "ĠRo": 2019,
      "Ġinvol": 2020,
      "Ġcity": 2021,
      "ĠThree": 2022,
      "Ġtalked": 2023,
      "lish": 2024,
      "Ġshall": 2025,
      "The": 2026,
      "we": 2027,
      "erry": 2028,
      "ĠGen": 2029,
      "ĠPr": 2030,
      "Ġothers": 2031,
      "Ġkiss": 2032,
      "ĠGra": 2033,
      "bor": 2034,
      "bye": 2035,
      "joy": 2036,
      "ĠThose": 2037,
      "Ġstick": 2038,
      "Ġblow": 2039,
      "bt": 2040,
      "fer": 2041,
      "vern": 2042,
      "ĠDaddy": 2043,
      "lin": 2044,
      "reed": 2045,
      "Ġgrow": 2046,
      "Ġspend": 2047,
      "ball": 2048,
      "Ġsystem": 2049,
      "five": 2050,
      "ĠSha": 2051,
      "irt": 2052,
      "ĠJoe": 2053,
      "Ġrespect": 2054,
      "',": 2055,
      "ich": 2056,
      "Ġbank": 2057,
      "Ġmeeting": 2058,
      "ead": 2059,
      "Ġmusic": 2060,
      "ĠCal": 2061,
      "Ġtrans": 2062,
      "Ġoutta": 2063,
      "Ġdoin": 2064,
      "ific": 2065,
      "Ġturned": 2066,
      "Ġbas": 2067,
      "ĠCha": 2068,
      "dered": 2069,
      "terday": 2070,
      "Ġsmart": 2071,
      "Ġpaper": 2072,
      "You": 2073,
      "Ġbag": 2074,
      "Ġseeing": 2075,
      "Ġloved": 2076,
      "ĠAlright": 2077,
      "Ġcause": 2078,
      "Ġhotel": 2079,
      "Ġgiving": 2080,
      "ĠHa": 2081,
      "ills": 2082,
      "Ġcost": 2083,
      "Ġdrug": 2084,
      "ken": 2085,
      "Ġow": 2086,
      "Ġind": 2087,
      "ided": 2088,
      "hole": 2089,
      "cha": 2090,
      "Ġpress": 2091,
      "Ġbecome": 2092,
      "ĠMother": 2093,
      "Ġcannot": 2094,
      "ĠPar": 2095,
      "Ġworse": 2096,
      "com": 2097,
      "Ġquick": 2098,
      "Ġapartment": 2099,
      "ming": 2100,
      "ities": 2101,
      "ĠEn": 2102,
      "Ġbullshit": 2103,
      "Ġstore": 2104,
      "uation": 2105,
      "entle": 2106,
      "gan": 2107,
      "Ġcoffee": 2108,
      "arling": 2109,
      "ered": 2110,
      "Ġtop": 2111,
      "Ġtot": 2112,
      "ĠThink": 2113,
      "ĠDavid": 2114,
      "br": 2115,
      "Ġfair": 2116,
      "ĠNice": 2117,
      "ĠKeep": 2118,
      "ls": 2119,
      "oof": 2120,
      "Ġmention": 2121,
      "Ġfeet": 2122,
      "illy": 2123,
      "Ġeye": 2124,
      "inger": 2125,
      "ĠCharlie": 2126,
      "ina": 2127,
      "Ġsimple": 2128,
      "ues": 2129,
      "Ġfault": 2130,
      "Ġlaugh": 2131,
      "uri": 2132,
      "rap": 2133,
      "ĠWhatever": 2134,
      "Ġworried": 2135,
      "Ġrespon": 2136,
      "ully": 2137,
      "Ġswear": 2138,
      "Ġhandle": 2139,
      "ĠRemember": 2140,
      "irth": 2141,
      "AT": 2142,
      "ik": 2143,
      "ĠBoy": 2144,
      "Ġfucked": 2145,
      "Ġlawy": 2146,
      "huh": 2147,
      "set": 2148,
      "Ġroad": 2149,
      "Ġdifference": 2150,
      "Ġpaid": 2151,
      "Ġones": 2152,
      "ĠForget": 2153,
      "Ġty": 2154,
      "Ġtele": 2155,
      "ĠInd": 2156,
      "Ġpen": 2157,
      "ĠSometimes": 2158,
      "ĠCol": 2159,
      "Ġsold": 2160,
      "Ġchoice": 2161,
      "ĠJeff": 2162,
      "AN": 2163,
      "bo": 2164,
      "cri": 2165,
      "Ġinvest": 2166,
      "ma": 2167,
      "ories": 2168,
      "Ġcaught": 2169,
      "Ġkept": 2170,
      "amed": 2171,
      "hael": 2172,
      "rie": 2173,
      "vious": 2174,
      "Ġsto": 2175,
      "Ġmistake": 2176,
      "Ġclothes": 2177,
      "sing": 2178,
      "Ġkick": 2179,
      "ĠOK": 2180,
      "urry": 2181,
      "oint": 2182,
      "elve": 2183,
      "\".": 2184,
      "ĠMister": 2185,
      "Ġplane": 2186,
      "Ġstrong": 2187,
      "inal": 2188,
      "rey": 2189,
      "Ġbreat": 2190,
      "Ġ3": 2191,
      "ering": 2192,
      "ĠAct": 2193,
      "ĠRose": 2194,
      "Ġdrop": 2195,
      "eed": 2196,
      "night": 2197,
      "vent": 2198,
      "ism": 2199,
      "Ġshort": 2200,
      "Ġseven": 2201,
      "Ġchanged": 2202,
      "--------": 2203,
      "nes": 2204,
      "roy": 2205,
      "Ġcops": 2206,
      "Ġdeep": 2207,
      "Ġinformation": 2208,
      "ĠMichael": 2209,
      "itive": 2210,
      "Ġcreat": 2211,
      "ĠRay": 2212,
      "ury": 2213,
      "ĠAnything": 2214,
      "Ġbucks": 2215,
      "Ġmarry": 2216,
      "uture": 2217,
      "Ġmurder": 2218,
      "Ġaff": 2219,
      "ĠLea": 2220,
      "Ġhonest": 2221,
      "ĠNO": 2222,
      "ring": 2223,
      "ray": 2224,
      "Ġ[": 2225,
      "Ġsmell": 2226,
      "ĠWalter": 2227,
      "RE": 2228,
      "Ġmiddle": 2229,
      "lex": 2230,
      "Ġreturn": 2231,
      "Ġmis": 2232,
      "ĠDick": 2233,
      "Ġvo": 2234,
      "Ġmach": 2235,
      "Ġnear": 2236,
      "Ġgiven": 2237,
      "that": 2238,
      "ĠTV": 2239,
      "ders": 2240,
      "erve": 2241,
      "ages": 2242,
      "ON": 2243,
      "ĠTe": 2244,
      "ĠLu": 2245,
      "Ġliked": 2246,
      "Ġprison": 2247,
      "une": 2248,
      "ode": 2249,
      "ges": 2250,
      "Ġprog": 2251,
      "ĠBu": 2252,
      "ĠFl": 2253,
      "ular": 2254,
      "Ġsounds": 2255,
      "used": 2256,
      "Ġserv": 2257,
      "LL": 2258,
      "urity": 2259,
      "ilt": 2260,
      "Ġlonger": 2261,
      "Ġhung": 2262,
      "ift": 2263,
      "Ġpract": 2264,
      "ĠFour": 2265,
      "Ġdrunk": 2266,
      "ĠAmerican": 2267,
      "Ġenjoy": 2268,
      ",\"": 2269,
      "ĠDamn": 2270,
      "\"?": 2271,
      "Ġhasn": 2272,
      "Ġbusy": 2273,
      "Ġtick": 2274,
      "reci": 2275,
      "Ġfuture": 2276,
      "Ġstrange": 2277,
      "ĠEverybody": 2278,
      "Ġsake": 2279,
      "Ġlying": 2280,
      "Ġbast": 2281,
      "Ġyesterday": 2282,
      "Ġbrain": 2283,
      "Ġterrible": 2284,
      "for": 2285,
      "ĠSid": 2286,
      "Ġcond": 2287,
      "Ġquit": 2288,
      "Ġclos": 2289,
      "Ġhappening": 2290,
      "Ġinvolved": 2291,
      "ety": 2292,
      "Ġred": 2293,
      "ĠPut": 2294,
      "ili": 2295,
      "Ġdiv": 2296,
      "Ġbath": 2297,
      "ĠWar": 2298,
      "fuck": 2299,
      "Ġris": 2300,
      "istory": 2301,
      "Ġexcept": 2302,
      "bert": 2303,
      "Ġfigured": 2304,
      "ĠTHE": 2305,
      "read": 2306,
      "Ġcent": 2307,
      "ĠPh": 2308,
      "ational": 2309,
      "Ġboat": 2310,
      "cing": 2311,
      "Ġsuit": 2312,
      "Ġdangerous": 2313,
      "ky": 2314,
      "Ġanywhere": 2315,
      "ission": 2316,
      "Ġproblems": 2317,
      "Ġsituation": 2318,
      "Ġbirth": 2319,
      "Ġlunch": 2320,
      "ement": 2321,
      "tle": 2322,
      "Ġfinish": 2323,
      "ĠEnglish": 2324,
      "iot": 2325,
      "nect": 2326,
      "ĠMake": 2327,
      "Ġ19": 2328,
      "know": 2329,
      "Ġsat": 2330,
      "Ġjump": 2331,
      "ored": 2332,
      "Ġcalls": 2333,
      "Ġill": 2334,
      "Ġfoot": 2335,
      "uring": 2336,
      "Ġentire": 2337,
      "ĠJimmy": 2338,
      "Ġfloor": 2339,
      "Ġpublic": 2340,
      "iol": 2341,
      "ĠPeter": 2342,
      "Ġmoving": 2343,
      "Ġbroke": 2344,
      "eace": 2345,
      "Ġcab": 2346,
      "Ġpack": 2347,
      "urse": 2348,
      "ĠSomeone": 2349,
      "Ġsitting": 2350,
      "Ġborn": 2351,
      "Ġstri": 2352,
      "ective": 2353,
      "Ġoh": 2354,
      "Ġweird": 2355,
      "Ġupset": 2356,
      "Ġappreci": 2357,
      "Ġed": 2358,
      "oun": 2359,
      "Ġgentle": 2360,
      "Ġjail": 2361,
      "ĠKing": 2362,
      "Ġtrip": 2363,
      "Ġwit": 2364,
      "Ġcal": 2365,
      "ution": 2366,
      "Ġknock": 2367,
      "Ġdev": 2368,
      "Ġwatching": 2369,
      "Ġrich": 2370,
      "ien": 2371,
      "Ġsun": 2372,
      "Ġearly": 2373,
      "ĠBesides": 2374,
      "Ġanim": 2375,
      "ĠPerhaps": 2376,
      "Ġtruck": 2377,
      "of": 2378,
      "Ġboss": 2379,
      "Ġfear": 2380,
      "Ġpiss": 2381,
      "aces": 2382,
      "Ġbox": 2383,
      "ĠToo": 2384,
      "rop": 2385,
      "ĠJames": 2386,
      "Ġeng": 2387,
      "clock": 2388,
      "Ġcompletely": 2389,
      "ror": 2390,
      "Ġstep": 2391,
      "Ġkilling": 2392,
      "ipp": 2393,
      "Ġbur": 2394,
      "Ġlist": 2395,
      "idge": 2396,
      "Ġrealize": 2397,
      "Ġaccount": 2398,
      "Ġring": 2399,
      "Ġchick": 2400,
      "tin": 2401,
      "stairs": 2402,
      "ĠEdd": 2403,
      "Ġneeded": 2404,
      "yle": 2405,
      "itche": 2406,
      "ĠCarl": 2407,
      "ume": 2408,
      "Ġbott": 2409,
      "ache": 2410,
      "Ġbust": 2411,
      "ĠSal": 2412,
      "ments": 2413,
      "!!!": 2414,
      "ĠGeneral": 2415,
      "iter": 2416,
      "key": 2417,
      "ĠOut": 2418,
      "ĠJohnny": 2419,
      "ervous": 2420,
      "Ġocc": 2421,
      "aine": 2422,
      "bers": 2423,
      "ging": 2424,
      "yn": 2425,
      "Ġpal": 2426,
      "Ġsuper": 2427,
      "Ġbuilding": 2428,
      "Ġnine": 2429,
      "Ġstate": 2430,
      "ĠFather": 2431,
      "Ġoffer": 2432,
      "Ġletter": 2433,
      "Ġmot": 2434,
      "Ġproper": 2435,
      "ĠShould": 2436,
      "Ġdiscuss": 2437,
      "Ġradio": 2438,
      "Ġcover": 2439,
      "Ġkinda": 2440,
      "Ġpossib": 2441,
      "Ġprivate": 2442,
      "Ġcareful": 2443,
      "Ġglass": 2444,
      "noon": 2445,
      "oon": 2446,
      "Ġnothin": 2447,
      "ege": 2448,
      "Ġopp": 2449,
      "Ġang": 2450,
      "Ġdoubt": 2451,
      "ĠBel": 2452,
      "udge": 2453,
      "Ġevening": 2454,
      "dden": 2455,
      "Ġslow": 2456,
      "Ġbelong": 2457,
      "port": 2458,
      "ĠAlex": 2459,
      "ĠJake": 2460,
      "ander": 2461,
      "Ġsudden": 2462,
      "Ġtough": 2463,
      "rench": 2464,
      "Ġdestroy": 2465,
      "Ġquiet": 2466,
      "Ġbooks": 2467,
      "Ġcertainly": 2468,
      "ĠSix": 2469,
      "ino": 2470,
      "Ġburn": 2471,
      "Ġcat": 2472,
      "ĠEve": 2473,
      "Ġloc": 2474,
      "lfriend": 2475,
      "Ġimagine": 2476,
      "ec": 2477,
      "Ġbought": 2478,
      "Ġarrest": 2479,
      "Ġcourt": 2480,
      "Ġpicked": 2481,
      "Ġz": 2482,
      "rill": 2483,
      "gu": 2484,
      "ium": 2485,
      "Ġ4": 2486,
      "ĠNor": 2487,
      "Ġmessage": 2488,
      "Ġwindow": 2489,
      "eat": 2490,
      "mas": 2491,
      "Ġlay": 2492,
      "ĠRus": 2493,
      "Ġteam": 2494,
      "Ġstopped": 2495,
      "Ġmiles": 2496,
      "Ġcig": 2497,
      "ĠBea": 2498,
      "ĠFred": 2499,
      "Ġself": 2500,
      "Ġafternoon": 2501,
      "fully": 2502,
      "Ġlikes": 2503,
      "Ġcarry": 2504,
      "Ġlived": 2505,
      "ĠActually": 2506,
      "ett": 2507,
      "ĠMore": 2508,
      "urch": 2509,
      "Ġhistory": 2510,
      "Ġfinished": 2511,
      "ron": 2512,
      "Ġdecided": 2513,
      "Ġowe": 2514,
      ">,": 2515,
      "ĠMike": 2516,
      "Ġkiller": 2517,
      "Ġesc": 2518,
      "ĠHold": 2519,
      "orth": 2520,
      "Ġinteresting": 2521,
      "Ġble": 2522,
      "atic": 2523,
      "Ġdem": 2524,
      "Ġ..": 2525,
      "Ġpresent": 2526,
      "Ġunless": 2527,
      "Ġmark": 2528,
      "Ġadm": 2529,
      "ĠAnyway": 2530,
      "ĠWhite": 2531,
      "Ġlawyer": 2532,
      "Ġsteal": 2533,
      "ĠEll": 2534,
      "Ġwrote": 2535,
      "iding": 2536,
      "ĠSer": 2537,
      "ĠMor": 2538,
      "Ġteach": 2539,
      "Ġconsider": 2540,
      "vernment": 2541,
      "Ġcir": 2542,
      "Ġcash": 2543,
      "Ġnamed": 2544,
      "Ġear": 2545,
      "cially": 2546,
      "ĠSec": 2547,
      "ĠEddie": 2548,
      "ĠSon": 2549,
      "Ġsol": 2550,
      "Ġscrew": 2551,
      "Ġdraw": 2552,
      "Ġdig": 2553,
      "Ġnervous": 2554,
      "Ġcomput": 2555,
      "ĠTry": 2556,
      "iment": 2557,
      "oly": 2558,
      "erg": 2559,
      "ĠSen": 2560,
      "ffic": 2561,
      "Ġasshole": 2562,
      "Ġstaying": 2563,
      "Ġtape": 2564,
      "boy": 2565,
      "Ġcross": 2566,
      "Ġtable": 2567,
      "ask": 2568,
      "ĠGl": 2569,
      "Ġgotten": 2570,
      "ĠPat": 2571,
      "ination": 2572,
      "Ġcard": 2573,
      "ened": 2574,
      "Ġnone": 2575,
      "Ġgirlfriend": 2576,
      "rect": 2577,
      "ĠMad": 2578,
      "ĠBo": 2579,
      "ope": 2580,
      "tact": 2581,
      "Ġvisit": 2582,
      "Ġvoice": 2583,
      "Ġsoul": 2584,
      "urp": 2585,
      "Ġarm": 2586,
      "Ġpictures": 2587,
      "Ġaccept": 2588,
      "Ġacross": 2589,
      "Ġbomb": 2590,
      "Ġthreat": 2591,
      "ĠLord": 2592,
      "ĠSim": 2593,
      "Ġgold": 2594,
      "iff": 2595,
      "Ġprove": 2596,
      "CK": 2597,
      "friend": 2598,
      "Ġer": 2599,
      "Ġdance": 2600,
      "Ġallow": 2601,
      "Ġhadn": 2602,
      "ĠChristmas": 2603,
      "Ġgar": 2604,
      "Ġneigh": 2605,
      "Ġforgot": 2606,
      "Ġpop": 2607,
      "ĠSch": 2608,
      "ĠLast": 2609,
      "els": 2610,
      "Ġappreciate": 2611,
      "Ġweap": 2612,
      "alt": 2613,
      "ĠCo": 2614,
      "Ġsomethin": 2615,
      "ĠStay": 2616,
      "lcome": 2617,
      "Ġbird": 2618,
      "ĠEm": 2619,
      "ING": 2620,
      "gue": 2621,
      "ĠTed": 2622,
      "Ġstation": 2623,
      "Ġinstead": 2624,
      "riage": 2625,
      "aret": 2626,
      "Ġtwelve": 2627,
      "ggest": 2628,
      "ĠHoll": 2629,
      "ices": 2630,
      "ĠRussi": 2631,
      "Ġcas": 2632,
      "Ġfat": 2633,
      "Ġve": 2634,
      "Ġground": 2635,
      "cker": 2636,
      "ĠFrench": 2637,
      "Ġdumb": 2638,
      "Ġbunch": 2639,
      "Ġreach": 2640,
      "Ġperhaps": 2641,
      "Ġimpress": 2642,
      "Ġapolog": 2643,
      "Ġbastard": 2644,
      "enn": 2645,
      "ĠFive": 2646,
      "Ġsuggest": 2647,
      "vy": 2648,
      "ĠWant": 2649,
      "ĠMac": 2650,
      "Ġforty": 2651,
      "Ġrequ": 2652,
      "Ġgod": 2653,
      "Ġcontact": 2654,
      "ries": 2655,
      "Ġval": 2656,
      "Ġputting": 2657,
      "Ġfifteen": 2658,
      "Ġage": 2659,
      "Ġmil": 2660,
      "Ġpark": 2661,
      "Ġvict": 2662,
      "ĠSte": 2663,
      "Ġmissing": 2664,
      "Ġfinally": 2665,
      "ires": 2666,
      "Ġice": 2667,
      "Ġtre": 2668,
      "inite": 2669,
      "Ġmain": 2670,
      "Ġfol": 2671,
      "oop": 2672,
      "Ġlistening": 2673,
      "Ġdriving": 2674,
      "Ġwake": 2675,
      "Ġprep": 2676,
      "rid": 2677,
      "hen": 2678,
      "Ġfill": 2679,
      "Ġstanding": 2680,
      "Ġobvious": 2681,
      "Ġwearing": 2682,
      "vies": 2683,
      "xic": 2684,
      "hys": 2685,
      "Ġmoved": 2686,
      "view": 2687,
      "Ġcharge": 2688,
      "Ġdying": 2689,
      "Ġcell": 2690,
      "Ġform": 2691,
      "ossible": 2692,
      "Ġspace": 2693,
      "Ġwitness": 2694,
      "Ġfield": 2695,
      "ules": 2696,
      "Ġconnect": 2697,
      "Ġcommun": 2698,
      "Ġcollege": 2699,
      "Ġ5": 2700,
      "Ġmod": 2701,
      "rick": 2702,
      "ĠRob": 2703,
      "ormal": 2704,
      "Ġmissed": 2705,
      "Ġjoin": 2706,
      "Ġfail": 2707,
      "Ġeh": 2708,
      "ĠMust": 2709,
      "Ġprodu": 2710,
      "Ġsmo": 2711,
      "Ġrelations": 2712,
      "Ġdirect": 2713,
      "ern": 2714,
      "Ġhero": 2715,
      "ĠMer": 2716,
      "ĠDel": 2717,
      "ĠAren": 2718,
      "mmer": 2719,
      "Ġsong": 2720,
      "ĠWor": 2721,
      "ĠCor": 2722,
      "Ġnose": 2723,
      "ĠLooks": 2724,
      "ĠLouis": 2725,
      "got": 2726,
      "Ġpeace": 2727,
      "uty": 2728,
      "Ġequ": 2729,
      "ears": 2730,
      "Ġjoke": 2731,
      "ĠAmerica": 2732,
      "Ġpus": 2733,
      "ĠBuddy": 2734,
      "ĠRic": 2735,
      "Ġhardly": 2736,
      "Ġhungry": 2737,
      "ano": 2738,
      "ĠBull": 2739,
      "ĠLove": 2740,
      "Ġblame": 2741,
      "Ġenem": 2742,
      "Ġroll": 2743,
      "avy": 2744,
      "uthor": 2745,
      "Ġmachine": 2746,
      "!?": 2747,
      "ĠAw": 2748,
      "Ġsaved": 2749,
      "Ġviol": 2750,
      "Ġpleasure": 2751,
      "Ġtotally": 2752,
      "time": 2753,
      "Ġtem": 2754,
      "Ġshar": 2755,
      "Ġhide": 2756,
      "ĠJew": 2757,
      "Ġmovies": 2758,
      "ĠSomebody": 2759,
      "ĠBlack": 2760,
      "Ġaddress": 2761,
      "Ġservice": 2762,
      "EN": 2763,
      "hood": 2764,
      "Ġlim": 2765,
      "ĠRed": 2766,
      "ends": 2767,
      "Ġphot": 2768,
      "af": 2769,
      "enny": 2770,
      "Ġtravel": 2771,
      "ĠOnce": 2772,
      "OR": 2773,
      "pin": 2774,
      "Ġsad": 2775,
      "Ġdam": 2776,
      "Ġlad": 2777,
      "ĠLie": 2778,
      "ogn": 2779,
      "000": 2780,
      "What": 2781,
      "Ġ!": 2782,
      "Ġce": 2783,
      "cell": 2784,
      "Ġways": 2785,
      "Ġspl": 2786,
      "Ġprogram": 2787,
      "work": 2788,
      "ĠMost": 2789,
      "aint": 2790,
      "Ġgives": 2791,
      "Ġemp": 2792,
      "Ġhonor": 2793,
      "bout": 2794,
      "und": 2795,
      "Ġthird": 2796,
      "ĠSus": 2797,
      "Ġattention": 2798,
      "Ġsurv": 2799,
      "Ġdaddy": 2800,
      "Ġhorse": 2801,
      "Ġinvestig": 2802,
      "Ġcirc": 2803,
      "het": 2804,
      "inc": 2805,
      "Ġwed": 2806,
      "Ġbill": 2807,
      "aged": 2808,
      "Ġboard": 2809,
      "Ġpapers": 2810,
      ">?": 2811,
      "riff": 2812,
      "Ġpercent": 2813,
      "ĠExactly": 2814,
      "ius": 2815,
      "well": 2816,
      "ham": 2817,
      "ĠChief": 2818,
      "ĠEveryone": 2819,
      "Ġmir": 2820,
      "Ġfish": 2821,
      "Ġstuck": 2822,
      "Ġcrime": 2823,
      "ĠLeave": 2824,
      "...\"": 2825,
      "ĠStill": 2826,
      "place": 2827,
      "ruct": 2828,
      "ĠWilliam": 2829,
      "Ġbeginning": 2830,
      "Ġtalkin": 2831,
      "Ġsingle": 2832,
      ">...": 2833,
      "AR": 2834,
      "ana": 2835,
      "owers": 2836,
      "Ġdreams": 2837,
      "Ġexperience": 2838,
      "oud": 2839,
      "Ġseconds": 2840,
      "Ġsuspect": 2841,
      "ĠCra": 2842,
      "Ġarmy": 2843,
      "attle": 2844,
      "Ġav": 2845,
      "Ġtor": 2846,
      "ĠHmm": 2847,
      "Ġeas": 2848,
      "ify": 2849,
      "urb": 2850,
      "Ġsurprise": 2851,
      "ĠParis": 2852,
      "tw": 2853,
      "ĠWow": 2854,
      "ĠHon": 2855,
      "Ġexcuse": 2856,
      "Ġloves": 2857,
      "ille": 2858,
      "ieve": 2859,
      "Ġcomfort": 2860,
      "Ġclub": 2861,
      "aith": 2862,
      "Ġstat": 2863,
      "amer": 2864,
      "ardon": 2865,
      "ĠBefore": 2866,
      "do": 2867,
      "ners": 2868,
      "ris": 2869,
      "ica": 2870,
      "Ġreading": 2871,
      "icide": 2872,
      "Ġprop": 2873,
      "hard": 2874,
      "Ġpray": 2875,
      "Ġcred": 2876,
      "uten": 2877,
      "Ġneck": 2878,
      "Ġorders": 2879,
      "Ġfighting": 2880,
      "Ġawful": 2881,
      "ĠProbably": 2882,
      "ficult": 2883,
      "Ġbirthday": 2884,
      "Ġcamp": 2885,
      "ĠSounds": 2886,
      "ified": 2887,
      "roup": 2888,
      "Ġvir": 2889,
      "Ġmarriage": 2890,
      "cket": 2891,
      "ĠCity": 2892,
      "Ġusually": 2893,
      "ures": 2894,
      "ager": 2895,
      "rer": 2896,
      "Ġnatur": 2897,
      "iculous": 2898,
      "Ġdarling": 2899,
      "ette": 2900,
      "aly": 2901,
      "Ġearth": 2902,
      "Ġpartner": 2903,
      "Ġsecurity": 2904,
      "Ġidiot": 2905,
      "Ġposition": 2906,
      "Ġevidence": 2907,
      "Ġescap": 2908,
      "Ġsilly": 2909,
      "Ġcry": 2910,
      "Ġcook": 2911,
      "Ġrecogn": 2912,
      "Ġdivor": 2913,
      "Ġnuts": 2914,
      "Ġste": 2915,
      "Ġblue": 2916,
      "Ġshare": 2917,
      "Ġwalking": 2918,
      "Ġpromised": 2919,
      "Ġevil": 2920,
      "Ġfilm": 2921,
      "ĠWere": 2922,
      "let": 2923,
      "ĠBack": 2924,
      "Ġnotice": 2925,
      "tern": 2926,
      "Ġplans": 2927,
      "ĠGodd": 2928,
      "pens": 2929,
      "otion": 2930,
      "Ġhurry": 2931,
      "ĠDep": 2932,
      "Ġpost": 2933,
      "iny": 2934,
      "Ġfort": 2935,
      "ĠTwenty": 2936,
      "Ġwondering": 2937,
      "Ġcomputer": 2938,
      "Ġbase": 2939,
      "Ġking": 2940,
      "alent": 2941,
      "ives": 2942,
      "Ġvac": 2943,
      "Ġourselves": 2944,
      "cious": 2945,
      "ĠAnn": 2946,
      "Ġguns": 2947,
      "azing": 2948,
      "ĠBilly": 2949,
      "Ġtype": 2950,
      "bur": 2951,
      "ians": 2952,
      "Ġsil": 2953,
      "ĠWest": 2954,
      "Ġnames": 2955,
      "Ġhy": 2956,
      "Ġbeer": 2957,
      "Ġacting": 2958,
      "Ġphys": 2959,
      "onel": 2960,
      "Ġload": 2961,
      "Ġblock": 2962,
      "Ġadmit": 2963,
      "Ġspec": 2964,
      "ĠDoesn": 2965,
      "Ġpig": 2966,
      "Ġabsolutely": 2967,
      "Ġasleep": 2968,
      "iced": 2969,
      "ended": 2970,
      "Ġexam": 2971,
      "Ġspent": 2972,
      "Ġdifficult": 2973,
      "Ġbroken": 2974,
      "utenant": 2975,
      "wise": 2976,
      "zen": 2977,
      "heart": 2978,
      "Ġcow": 2979,
      "Ġfan": 2980,
      "Ġinno": 2981,
      "ĠSince": 2982,
      "ĠMin": 2983,
      "ĠCle": 2984,
      "ĠFed": 2985,
      "ĠStar": 2986,
      "ĠMajor": 2987,
      "Ġelect": 2988,
      "initely": 2989,
      "Ġfit": 2990,
      "Ġhook": 2991,
      "ĠSan": 2992,
      "Ġtells": 2993,
      "Ġboyfriend": 2994,
      "Ġfolks": 2995,
      "Ġusing": 2996,
      "Ġconv": 2997,
      "Ġmemory": 2998,
      "Ġwedding": 2999,
      "off": 3000,
      "ĠHoney": 3001,
      "Ġrent": 3002,
      "ĠĠĠ": 3003,
      "Ġwriting": 3004,
      "rat": 3005,
      "Ġwat": 3006,
      "ĠTen": 3007,
      "ĠBab": 3008,
      "ending": 3009,
      "Ġappro": 3010,
      "Ġridiculous": 3011,
      "Ġdrugs": 3012,
      "Ġwild": 3013,
      "Ġlar": 3014,
      "ĠGer": 3015,
      "ĠJul": 3016,
      "ploy": 3017,
      "Ġcrap": 3018,
      "Ġextra": 3019,
      "Ġide": 3020,
      "oring": 3021,
      "Ġjack": 3022,
      "earch": 3023,
      "BI": 3024,
      "bit": 3025,
      "ov": 3026,
      "Ġfired": 3027,
      "ĠLau": 3028,
      "ĠJerry": 3029,
      "ĠEarth": 3030,
      "Ġagree": 3031,
      "Ġmission": 3032,
      "Ġcigaret": 3033,
      "Cause": 3034,
      "ya": 3035,
      "Ġwhether": 3036,
      "Ġstarting": 3037,
      "ser": 3038,
      "ĠHas": 3039,
      "ĠRick": 3040,
      "Ġplenty": 3041,
      "roud": 3042,
      "Ġtwice": 3043,
      "ĠMexic": 3044,
      "Ġrelax": 3045,
      "Ġsurprised": 3046,
      "ĠGee": 3047,
      "ĠCharles": 3048,
      "ĠGrand": 3049,
      "Ġbre": 3050,
      "Ġnormal": 3051,
      "hile": 3052,
      "Ġparticul": 3053,
      "Ġforever": 3054,
      "Ġlab": 3055,
      "gged": 3056,
      "rass": 3057,
      "Ġaut": 3058,
      "Ġlow": 3059,
      "ĠWatch": 3060,
      "ently": 3061,
      "ĠEver": 3062,
      "Ġpolit": 3063,
      "OO": 3064,
      "ral": 3065,
      "ĠOver": 3066,
      "iew": 3067,
      "ĠBetter": 3068,
      "ĠWH": 3069,
      "ĠMu": 3070,
      "Ġrecords": 3071,
      "Ġofficer": 3072,
      "gin": 3073,
      "Ġfright": 3074,
      "ese": 3075,
      "ĠMars": 3076,
      "Ġnote": 3077,
      "ĠKill": 3078,
      "Ġquar": 3079,
      "iant": 3080,
      "Ġtur": 3081,
      "ĠHal": 3082,
      "Ġgovernment": 3083,
      "chn": 3084,
      "ĠHelp": 3085,
      "Ġguest": 3086,
      "Ġimpossible": 3087,
      "uc": 3088,
      "Ġir": 3089,
      "Ġbeha": 3090,
      "Ġrules": 3091,
      "Ġkeeps": 3092,
      "Ġplanet": 3093,
      "Ġangry": 3094,
      "ET": 3095,
      "form": 3096,
      "Ġsens": 3097,
      "Ġcust": 3098,
      "ĠDor": 3099,
      "irm": 3100,
      "Ġfeelings": 3101,
      "Ġlevel": 3102,
      "Ġcrim": 3103,
      "Ġcollect": 3104,
      "IT": 3105,
      "aven": 3106,
      "erk": 3107,
      "ĠFif": 3108,
      "Ġclosed": 3109,
      "ĠUnder": 3110,
      "Ġbathroom": 3111,
      "Ġneighbor": 3112,
      "Ġbuddy": 3113,
      "Ġgas": 3114,
      "eth": 3115,
      "ĠMag": 3116,
      "ĠCong": 3117,
      "ĠPol": 3118,
      "Ġwalked": 3119,
      "just": 3120,
      "ining": 3121,
      "Ġbow": 3122,
      "Ġfile": 3123,
      "ĠFBI": 3124,
      "ĠThom": 3125,
      "Ġembar": 3126,
      "Ġpulled": 3127,
      "Ġfellow": 3128,
      "Ġcorrect": 3129,
      "Ġrelationship": 3130,
      "light": 3131,
      "ĠTra": 3132,
      "ĠFin": 3133,
      "astic": 3134,
      "vis": 3135,
      "Ġtight": 3136,
      "Ġcuri": 3137,
      "ste": 3138,
      "ĠEight": 3139,
      "Ġherself": 3140,
      "Ġrock": 3141,
      "Ġcontin": 3142,
      "ĠUncle": 3143,
      "itude": 3144,
      "imme": 3145,
      "ĠLeon": 3146,
      "Ġfeed": 3147,
      "Ġhost": 3148,
      "Ġsummer": 3149,
      "Ġorgan": 3150,
      "acy": 3151,
      "Ġarri": 3152,
      "ption": 3153,
      "can": 3154,
      "fast": 3155,
      "Ġdun": 3156,
      "Ġstories": 3157,
      "Ġseemed": 3158,
      "Ġlots": 3159,
      "Ġdick": 3160,
      "Ġca": 3161,
      "Ġloose": 3162,
      "amb": 3163,
      "ils": 3164,
      "Ġsmoke": 3165,
      "Ġdollar": 3166,
      "Ġadvice": 3167,
      "Ġvictim": 3168,
      "ĠLo": 3169,
      "ĠLittle": 3170,
      "unny": 3171,
      "Ġdump": 3172,
      "Ġciv": 3173,
      "ĠTalk": 3174,
      "Ġann": 3175,
      "rodu": 3176,
      "Ġnecess": 3177,
      "ĠBetty": 3178,
      "aff": 3179,
      "...!": 3180,
      "ĠMo": 3181,
      "Ġspir": 3182,
      "ĠUp": 3183,
      "Ġattract": 3184,
      "Ġtrick": 3185,
      "ĠTommy": 3186,
      "ĠBobby": 3187,
      "Ġyell": 3188,
      "Ġhom": 3189,
      "Ġoften": 3190,
      "ĠAin": 3191,
      "ĠDude": 3192,
      "ĠRoy": 3193,
      "Ġblind": 3194,
      "Ġbuilt": 3195,
      "ĠBelieve": 3196,
      "IS": 3197,
      "venty": 3198,
      "wood": 3199,
      "ishing": 3200,
      "host": 3201,
      "itten": 3202,
      "rank": 3203,
      "Ġremind": 3204,
      "Ġcontract": 3205,
      "Ġholding": 3206,
      "con": 3207,
      "Ġtax": 3208,
      "Ġsea": 3209,
      "Ġdi": 3210,
      "Ġcur": 3211,
      "Ġcrew": 3212,
      "Ġfinger": 3213,
      "Ġopin": 3214,
      "ĠFrid": 3215,
      "esty": 3216,
      "aren": 3217,
      "Ġplayed": 3218,
      "Ġcheap": 3219,
      "ountain": 3220,
      "Ġlearned": 3221,
      "nel": 3222,
      "Ġgames": 3223,
      "Ġisland": 3224,
      "ĠEr": 3225,
      "Ġspot": 3226,
      "eeth": 3227,
      "Ġprofession": 3228,
      "cking": 3229,
      "Ġiss": 3230,
      "ppy": 3231,
      "Ġplaces": 3232,
      "ĠUm": 3233,
      "Ġï¿½ï¿½": 3234,
      "Ġembarrass": 3235,
      "vision": 3236,
      "Ġ$": 3237,
      "Ġwaste": 3238,
      "Ġmix": 3239,
      "ĠHen": 3240,
      "ĠHard": 3241,
      "Ġforgive": 3242,
      "ffect": 3243,
      "lor": 3244,
      "Ġest": 3245,
      "Ġstole": 3246,
      "ĠChan": 3247,
      "raph": 3248,
      "Ġconvers": 3249,
      "Ġrisk": 3250,
      "ĠLieutenant": 3251,
      "aim": 3252,
      "por": 3253,
      "ĠTime": 3254,
      "arry": 3255,
      "ĠSit": 3256,
      "Ġegg": 3257,
      "ĠOld": 3258,
      "iforn": 3259,
      "icated": 3260,
      "que": 3261,
      "Ġspo": 3262,
      "Ġcharact": 3263,
      "Ġsleeping": 3264,
      "ĠCaliforn": 3265,
      "bs": 3266,
      "ĠSl": 3267,
      "Ġrece": 3268,
      "Ġsucc": 3269,
      "Ġscare": 3270,
      "Ġfeels": 3271,
      "Ġcoun": 3272,
      "Ġinnocent": 3273,
      "lt": 3274,
      "over": 3275,
      "ped": 3276,
      "Ġ7": 3277,
      "ero": 3278,
      "Ġgift": 3279,
      "Ġodd": 3280,
      "ata": 3281,
      "andy": 3282,
      "ĠJean": 3283,
      "ĠPhil": 3284,
      "sc": 3285,
      "Ġforce": 3286,
      "ada": 3287,
      "Ġant": 3288,
      "ĠPret": 3289,
      "Ġprice": 3290,
      "aa": 3291,
      "Ġduring": 3292,
      "Ġband": 3293,
      "Ġnature": 3294,
      "Ġproud": 3295,
      "lyn": 3296,
      "otten": 3297,
      "Ġmajor": 3298,
      "ĠGuess": 3299,
      "Ġfavorite": 3300,
      ">!": 3301,
      "ES": 3302,
      "iner": 3303,
      "Ġsle": 3304,
      "Ġfreak": 3305,
      "Ġpu": 3306,
      "ĠMama": 3307,
      "rible": 3308,
      "ĠDet": 3309,
      "hington": 3310,
      "ĠDoc": 3311,
      "ĠAlways": 3312,
      "ĠAbsolutely": 3313,
      "Ġcondition": 3314,
      "ĠCalifornia": 3315,
      "gn": 3316,
      "house": 3317,
      "ĠIN": 3318,
      "erm": 3319,
      "Ġpot": 3320,
      "Ġweak": 3321,
      "Ġneither": 3322,
      "Ġscream": 3323,
      "ĠExcept": 3324,
      "ĠAdm": 3325,
      "Ġ]": 3326,
      "Ġden": 3327,
      "Ġdirty": 3328,
      "Ġcute": 3329,
      "ises": 3330,
      "Ġhole": 3331,
      "ĠOk": 3332,
      "ĠLi": 3333,
      "Ġworst": 3334,
      "olf": 3335,
      "arden": 3336,
      "ortun": 3337,
      "Ġview": 3338,
      "Ġskin": 3339,
      "Ġpatient": 3340,
      "ĠHolly": 3341,
      "ker": 3342,
      "ns": 3343,
      "Ġcamer": 3344,
      "Ġpan": 3345,
      "Ġknowing": 3346,
      "rog": 3347,
      "urance": 3348,
      "ĠVan": 3349,
      "ruce": 3350,
      "ĠWashington": 3351,
      "ĠRichard": 3352,
      "ĠBullshit": 3353,
      "Ġaud": 3354,
      "itor": 3355,
      "ĠHall": 3356,
      "ĠLong": 3357,
      "ĠPop": 3358,
      "ĠAndy": 3359,
      "ĠSheriff": 3360,
      "Ġapart": 3361,
      "Ġdunno": 3362,
      "isf": 3363,
      "ĠThing": 3364,
      "Ġhun": 3365,
      "Ġhall": 3366,
      "Ġwilling": 3367,
      "Ġintell": 3368,
      "like": 3369,
      "ply": 3370,
      "uro": 3371,
      "Ġauthor": 3372,
      "ĠSk": 3373,
      "ĠGO": 3374,
      "Ġarea": 3375,
      "Ġlock": 3376,
      "ument": 3377,
      "Ġlovely": 3378,
      "Ġcommand": 3379,
      "ĠNext": 3380,
      "Ġdetail": 3381,
      "Ġsubject": 3382,
      "Ġwithin": 3383,
      "Ġgettin": 3384,
      "ĠRel": 3385,
      "Ġlocked": 3386,
      "ĠStreet": 3387,
      "ĠAsk": 3388,
      "Ġchurch": 3389,
      "Ġcredit": 3390,
      "ai": 3391,
      "Ġgroup": 3392,
      "Ġonto": 3393,
      "ĠGoodbye": 3394,
      "ĠColonel": 3395,
      "ford": 3396,
      "uel": 3397,
      "Ġ6": 3398,
      "Ġund": 3399,
      "ĠLee": 3400,
      "pper": 3401,
      "Ġharm": 3402,
      "Ġconcerned": 3403,
      "Ġapologize": 3404,
      "Ġcast": 3405,
      "ĠYah": 3406,
      "igg": 3407,
      "Ġconst": 3408,
      "gar": 3409,
      "yond": 3410,
      "Ġ8": 3411,
      "itz": 3412,
      "ĠTurn": 3413,
      "ĠYa": 3414,
      "ids": 3415,
      "Ġdrinking": 3416,
      "Ġinsane": 3417,
      "Ġtaste": 3418,
      "Ġeffect": 3419,
      "roll": 3420,
      "Ġshowed": 3421,
      "ĠTomorrow": 3422,
      "Ġcalm": 3423,
      "!...": 3424,
      "Ġteeth": 3425,
      "Ġwood": 3426,
      "ĠMmm": 3427,
      "ĠJun": 3428,
      "Ġscene": 3429,
      "ĠMartin": 3430,
      "ration": 3431,
      "uly": 3432,
      "Ġtaught": 3433,
      "Ġmid": 3434,
      "ĠApp": 3435,
      "ĠBruce": 3436,
      "ĠRome": 3437,
      "resh": 3438,
      "Ġswim": 3439,
      "Ġsupport": 3440,
      "ology": 3441,
      "Ġstudy": 3442,
      "ipped": 3443,
      "ka": 3444,
      "Ġcode": 3445,
      "Ġla": 3446,
      "ĠHigh": 3447,
      "ooper": 3448,
      "essor": 3449,
      "spap": 3450,
      "Ġweekend": 3451,
      "Ġtraining": 3452,
      "ĠHenry": 3453,
      "Ġheaven": 3454,
      "antic": 3455,
      "Ġagent": 3456,
      "Ġdecide": 3457,
      "they": 3458,
      "gest": 3459,
      "town": 3460,
      "Ġsearch": 3461,
      "lly": 3462,
      "Ġheavy": 3463,
      "imate": 3464,
      "Ġwelcome": 3465,
      "ĠNone": 3466,
      "ĠCr": 3467,
      "ĠJan": 3468,
      "icle": 3469,
      "Ġsuff": 3470,
      "ĠVict": 3471,
      "Ġpaying": 3472,
      "Ġcommon": 3473,
      "ĠSmith": 3474,
      "nal": 3475,
      "Ġcru": 3476,
      "anks": 3477,
      "Ġstran": 3478,
      "eech": 3479,
      "Ġamazing": 3480,
      "ĠState": 3481,
      "Ġbreakfast": 3482,
      "Ġticket": 3483,
      "iat": 3484,
      "reme": 3485,
      "Ġsand": 3486,
      "ĠTri": 3487,
      "ĠMill": 3488,
      "Ġstock": 3489,
      "Ġupstairs": 3490,
      "inda": 3491,
      "ĠAnother": 3492,
      "Ġlately": 3493,
      "Ġcorner": 3494,
      "Ġpurp": 3495,
      "Ġthr": 3496,
      "ĠCat": 3497,
      "eared": 3498,
      "ĠPri": 3499,
      "aked": 3500,
      "Ġcock": 3501,
      "Ġcareer": 3502,
      "Ġdesert": 3503,
      "Ġmurdered": 3504,
      "Ġempty": 3505,
      "two": 3506,
      "UT": 3507,
      "jesty": 3508,
      "Ġhey": 3509,
      "ĠMon": 3510,
      "oyd": 3511,
      "merg": 3512,
      "Ġsettle": 3513,
      "medi": 3514,
      "Ġdropped": 3515,
      "ĠScott": 3516,
      "Ġdetective": 3517,
      "Ġtelevision": 3518,
      "Ġsplit": 3519,
      "par": 3520,
      "ĠIT": 3521,
      "Ġpe": 3522,
      "Ġheal": 3523,
      "ĠLa": 3524,
      "ĠPark": 3525,
      "Ġmoon": 3526,
      "ĠGerman": 3527,
      "It": 3528,
      "bed": 3529,
      "Ġfant": 3530,
      "ĠSar": 3531,
      "ĠHouse": 3532,
      "Ġforward": 3533,
      "Ġcars": 3534,
      "Ġgener": 3535,
      "Ġcolor": 3536,
      "Ġafford": 3537,
      "Ġanimal": 3538,
      "four": 3539,
      "mare": 3540,
      "ĠInt": 3541,
      "Ġpun": 3542,
      "ĠSho": 3543,
      "Ġsoft": 3544,
      "Ġkeeping": 3545,
      "Ġnewspap": 3546,
      "Ġprint": 3547,
      "Ġturns": 3548,
      "ĠGoddamn": 3549,
      "Ġopinion": 3550,
      "ĠPretty": 3551,
      "din": 3552,
      "line": 3553,
      "rate": 3554,
      "Ġmer": 3555,
      "ites": 3556,
      "ĠSant": 3557,
      "ĠHad": 3558,
      "amin": 3559,
      "spect": 3560,
      "Ġtrial": 3561,
      "ĠBrother": 3562,
      "Ġdepartment": 3563,
      "Ġhanging": 3564,
      "ĠGuy": 3565,
      "ĠDanie": 3566,
      "stein": 3567,
      "za": 3568,
      "reng": 3569,
      "Ġnoticed": 3570,
      "ĠNope": 3571,
      "ourse": 3572,
      "ĠEv": 3573,
      "Ġlosing": 3574,
      "Ġproof": 3575,
      "Ġresponsible": 3576,
      "Ġenemy": 3577,
      "Ġsuccess": 3578,
      "Ġnin": 3579,
      "Ġhol": 3580,
      "Ġlic": 3581,
      "Ġjudge": 3582,
      "gel": 3583,
      "Ġthemselves": 3584,
      "Ġimmedi": 3585,
      "Ġruns": 3586,
      "ograph": 3587,
      "Ġshoes": 3588,
      "----------------": 3589,
      "Ġcivil": 3590,
      "Ġcharacter": 3591,
      "mb": 3592,
      "Ġsight": 3593,
      "ĠME": 3594,
      "ĠNah": 3595,
      "ĠOther": 3596,
      "rage": 3597,
      "Ġround": 3598,
      "Ġhelped": 3599,
      "Ġchair": 3600,
      "oh": 3601,
      "yl": 3602,
      "eds": 3603,
      "ĠSouth": 3604,
      "iral": 3605,
      "rief": 3606,
      "ĠSenator": 3607,
      "Ġcurious": 3608,
      "Ġtree": 3609,
      "ĠTer": 3610,
      "Ġitself": 3611,
      "ĠSame": 3612,
      "Ġeating": 3613,
      "elly": 3614,
      "onely": 3615,
      "ĠShow": 3616,
      "Ġbrothers": 3617,
      "ĠMarty": 3618,
      "VE": 3619,
      "back": 3620,
      "ex": 3621,
      "Ġhiding": 3622,
      "Ġrough": 3623,
      "itted": 3624,
      "ization": 3625,
      "Ġfamous": 3626,
      "Ġfarm": 3627,
      "ĠComp": 3628,
      "angu": 3629,
      "Ġsimply": 3630,
      "Ġdouble": 3631,
      "Ġbreath": 3632,
      "Ġnatural": 3633,
      "Ġconversation": 3634,
      "ki": 3635,
      "she": 3636,
      "Ġwha": 3637,
      "Ġpool": 3638,
      "arch": 3639,
      "Ġhired": 3640,
      "Ġlied": 3641,
      "ĠFind": 3642,
      "ĠKen": 3643,
      "Ġstarts": 3644,
      "Ġaction": 3645,
      "Ġdesk": 3646,
      "Ġseriously": 3647,
      "Ġfollowing": 3648,
      "iliar": 3649,
      "ees": 3650,
      "Ġsize": 3651,
      "Ġcrow": 3652,
      "ĠSatur": 3653,
      "ula": 3654,
      "Ġshop": 3655,
      "Ġcopy": 3656,
      "Ġsurvive": 3657,
      "field": 3658,
      "ground": 3659,
      "ugg": 3660,
      "Ġign": 3661,
      "Ġdue": 3662,
      "Ġincl": 3663,
      "ĠMiles": 3664,
      "usion": 3665,
      "Ġexist": 3666,
      "Ġvide": 3667,
      "Ġletters": 3668,
      "Ġclim": 3669,
      "aced": 3670,
      "Ġpossibly": 3671,
      "Ġsuddenly": 3672,
      "aur": 3673,
      "Ġwine": 3674,
      "oned": 3675,
      "Ġmama": 3676,
      "ances": 3677,
      "ĠTod": 3678,
      "asc": 3679,
      "ality": 3680,
      "ĠGre": 3681,
      "ĠSoon": 3682,
      "Ġdecision": 3683,
      "itchen": 3684,
      "ĠThings": 3685,
      "ĠSaturday": 3686,
      "ivers": 3687,
      "tor": 3688,
      "Ġtip": 3689,
      "Ġbod": 3690,
      "Ġcup": 3691,
      "ĠTO": 3692,
      "Ġheat": 3693,
      "ila": 3694,
      "Ġgreatest": 3695,
      "Ġident": 3696,
      "velop": 3697,
      "Ġopportun": 3698,
      "mergency": 3699,
      "look": 3700,
      "Ġbat": 3701,
      "Ġbeach": 3702,
      "ades": 3703,
      "ĠCent": 3704,
      "ilty": 3705,
      "Ġrout": 3706,
      "osh": 3707,
      "ulations": 3708,
      "Ġseat": 3709,
      "iction": 3710,
      "chan": 3711,
      "iest": 3712,
      "mission": 3713,
      "val": 3714,
      "Ġ9": 3715,
      "ĠWay": 3716,
      "Ġpin": 3717,
      "Ġpil": 3718,
      "arm": 3719,
      "stood": 3720,
      "Ġbeyond": 3721,
      "ĠFort": 3722,
      "Ġwhose": 3723,
      "Ġrob": 3724,
      "Ġwarm": 3725,
      "Ġprefer": 3726,
      "ĠFranc": 3727,
      "Ġinterview": 3728,
      "Ġlegs": 3729,
      "Ġideas": 3730,
      "pect": 3731,
      "ville": 3732,
      "Ġduty": 3733,
      "Ġlaid": 3734,
      "ĠWha": 3735,
      "lect": 3736,
      "ĠHoly": 3737,
      "ĠRog": 3738,
      "Ġflight": 3739,
      "ĠArmy": 3740,
      "ĠThomas": 3741,
      "ĠAdmiral": 3742,
      "ĠVictor": 3743,
      "loyd": 3744,
      "asons": 3745,
      "ĠDave": 3746,
      "Ġguard": 3747,
      "Ġappear": 3748,
      "ĠWouldn": 3749,
      "ĠĠĠĠĠĠĠĠĠĠĠĠĠĠĠĠĠĠĠĠĠĠĠĠ": 3750,
      "Ġwast": 3751,
      "Ġlonely": 3752,
      "Ġlangu": 3753,
      "rian": 3754,
      "ĠDou": 3755,
      "ĠGord": 3756,
      "Ġintrodu": 3757,
      "ĠStan": 3758,
      "ondon": 3759,
      "Ġraise": 3760,
      "Ġpassed": 3761,
      "Ġteacher": 3762,
      "Ġvacation": 3763,
      "ses": 3764,
      "ĠAye": 3765,
      "ĠBad": 3766,
      "iring": 3767,
      "Ġcomin": 3768,
      "this": 3769,
      "ĠVeg": 3770,
      "ĠHarold": 3771,
      "Ġlarge": 3772,
      "OM": 3773,
      "ĠLondon": 3774,
      "urther": 3775,
      "ĠBrit": 3776,
      "Ġevent": 3777,
      "ĠProf": 3778,
      "ID": 3779,
      "Ġcous": 3780,
      "orter": 3781,
      "Ġpounds": 3782,
      "ĠCount": 3783,
      "ĠLloyd": 3784,
      "ĠGreen": 3785,
      "Ġdeg": 3786,
      "Ġclient": 3787,
      "igned": 3788,
      "Ġheads": 3789,
      "Ġmatters": 3790,
      "Ġfamiliar": 3791,
      "Ġchamp": 3792,
      "Ġkeys": 3793,
      "ĠRobert": 3794,
      "ez": 3795,
      "gs": 3796,
      "uit": 3797,
      "omm": 3798,
      "Ġheld": 3799,
      "Ġstars": 3800,
      "Ġspoke": 3801,
      "Ġhearing": 3802,
      "Ġtrack": 3803,
      "Ġobs": 3804,
      "Ġshooting": 3805,
      "idden": 3806,
      "Ġresponsib": 3807,
      "Ġcustom": 3808,
      "Ġrom": 3809,
      "ĠWes": 3810,
      "ĠBer": 3811,
      "Ġorig": 3812,
      "ĠSund": 3813,
      "Ġmagaz": 3814,
      "came": 3815,
      "va": 3816,
      "Ġmaster": 3817,
      "Ġghost": 3818,
      "aring": 3819,
      "Ġbecom": 3820,
      "ĠLife": 3821,
      "iling": 3822,
      "Ġsword": 3823,
      "Ġmotherfuck": 3824,
      "Ġposs": 3825,
      "Ġtechn": 3826,
      "ĠBlue": 3827,
      "ealous": 3828,
      "ĠAgent": 3829,
      "ĠGrace": 3830,
      "Ġ&": 3831,
      "ays": 3832,
      "ĠAN": 3833,
      "Ġrub": 3834,
      "Ġbigger": 3835,
      "Ġemploy": 3836,
      "ĠQue": 3837,
      "Ġfella": 3838,
      "ĠEngland": 3839,
      "board": 3840,
      "Ġsatisf": 3841,
      "ĠMexico": 3842,
      "Ġnail": 3843,
      "Ġkitchen": 3844,
      "ĠDu": 3845,
      "Ġpocket": 3846,
      "Ġdeserve": 3847,
      "Ġnumbers": 3848,
      "AA": 3849,
      "Ġnurse": 3850,
      "icy": 3851,
      "ĠPre": 3852,
      "ference": 3853,
      "ĠBrad": 3854,
      "Ġchecked": 3855,
      "ĠDorot": 3856,
      "\"...": 3857,
      "ca": 3858,
      "gly": 3859,
      "inct": 3860,
      "Ġthro": 3861,
      "Ġjealous": 3862,
      "Ġlookin": 3863,
      "Ġcomb": 3864,
      "Ġclaim": 3865,
      "Ġremain": 3866,
      "Ġolder": 3867,
      "Ġdescri": 3868,
      "hetic": 3869,
      "aire": 3870,
      "ĠBra": 3871,
      "ĠLaw": 3872,
      "ĠHel": 3873,
      "ĠJason": 3874,
      "Ġplant": 3875,
      "Ġcares": 3876,
      "Ġassist": 3877,
      "Ġhoping": 3878,
      "ĠCheck": 3879,
      "ĠNorman": 3880,
      "Ġpurpose": 3881,
      "rength": 3882,
      "Ġbodies": 3883,
      "ĠVegas": 3884,
      "col": 3885,
      "ann": 3886,
      "ĠCas": 3887,
      "istic": 3888,
      "Ġguilty": 3889,
      "Ġspeech": 3890,
      "Ġshows": 3891,
      "Ġmonster": 3892,
      "ED": 3893,
      "tes": 3894,
      "Ġmap": 3895,
      "Ġdry": 3896,
      "Ġgreen": 3897,
      "Ġpants": 3898,
      "ĠBud": 3899,
      "ĠPart": 3900,
      "Ġbridge": 3901,
      "Ġprin": 3902,
      "ĠMajesty": 3903,
      "Ġperfectly": 3904,
      "UCK": 3905,
      "Ġtie": 3906,
      "Ġwound": 3907,
      "Ġjour": 3908,
      "Ġanswers": 3909,
      "ĠTrust": 3910,
      "Ġmagic": 3911,
      "ĠJeffrey": 3912,
      "Ġcomfortable": 3913,
      "Ġrecognize": 3914,
      "under": 3915,
      "Ġlines": 3916,
      "oman": 3917,
      "Ġnights": 3918,
      "ressed": 3919,
      "Ġpregn": 3920,
      "ĠHaven": 3921,
      "Ġspirit": 3922,
      "!\"": 3923,
      "don": 3924,
      "fle": 3925,
      "Ġfurther": 3926,
      "Ġbecame": 3927,
      "ĠCause": 3928,
      "using": 3929,
      "Ġsomehow": 3930,
      "fered": 3931,
      "umber": 3932,
      "ago": 3933,
      "Ġnightmare": 3934,
      "Ġmedical": 3935,
      "ĠMcC": 3936,
      "Ġbottle": 3937,
      "Ġcriminal": 3938,
      "dia": 3939,
      "oid": 3940,
      "Ġscient": 3941,
      "Ġrepres": 3942,
      "Ġdefinitely": 3943,
      "Ġproperty": 3944,
      "'...": 3945,
      "sed": 3946,
      "Ġfaith": 3947,
      "Ġweight": 3948,
      "ĠRy": 3949,
      "Ġsuicide": 3950,
      "Ġsees": 3951,
      "Ġproject": 3952,
      "Ġwriter": 3953,
      "Ġcrack": 3954,
      "gging": 3955,
      "ĠSuper": 3956,
      "Ġincred": 3957,
      "Ġrequest": 3958,
      "Ġborrow": 3959,
      "ening": 3960,
      "ĠSpe": 3961,
      "ĠFar": 3962,
      "Ġvan": 3963,
      "ĠVer": 3964,
      "ĠDeath": 3965,
      "Ġsweetheart": 3966,
      "Ġhorrible": 3967,
      "ĠRussian": 3968,
      "Ġnecessary": 3969,
      "OW": 3970,
      "yal": 3971,
      "ĠX": 3972,
      "itary": 3973,
      "Ġcrying": 3974,
      "ĠYep": 3975,
      "sey": 3976,
      "ĠMick": 3977,
      "ĠMark": 3978,
      "ĠJac": 3979,
      "ucky": 3980,
      "akin": 3981,
      "Ġwritten": 3982,
      "Ġarms": 3983,
      "Ġhello": 3984,
      "ĠDead": 3985,
      "Ġrule": 3986,
      "Ġdisappear": 3987,
      "ĠBuzz": 3988,
      "ergy": 3989,
      "Ġescape": 3990,
      "ule": 3991,
      "Ġmood": 3992,
      "Ġcards": 3993,
      "omed": 3994,
      "asion": 3995,
      "ĠHot": 3996,
      "ceed": 3997,
      "ĠCa": 3998,
      "ĠCut": 3999,
      "ĠEuro": 4000,
      "Ġdevelop": 4001,
      "ĠKnow": 4002,
      "Ġriver": 4003,
      "Ġinsurance": 4004,
      "Ġbrains": 4005,
      "fortun": 4006,
      "Ġexcited": 4007,
      "Ġpissed": 4008,
      "Ġblew": 4009,
      "ĠSunday": 4010,
      "ĠDorothy": 4011,
      "cise": 4012,
      "Ġtalent": 4013,
      "rem": 4014,
      "ĠBur": 4015,
      "Ġstom": 4016,
      "elle": 4017,
      "Ġusual": 4018,
      "Ġmeaning": 4019,
      "Ġbelieved": 4020,
      "pecially": 4021,
      "Ġrain": 4022,
      "Ġsixty": 4023,
      "Ġcamera": 4024,
      ".,": 4025,
      "gl": 4026,
      "rel": 4027,
      "ĠSH": 4028,
      "ĠAust": 4029,
      "Ġcarrying": 4030,
      "ĠClau": 4031,
      "Ġdrove": 4032,
      "Ġgentleman": 4033,
      "Ġweapons": 4034,
      "gers": 4035,
      "ients": 4036,
      "rit": 4037,
      "itiz": 4038,
      "essed": 4039,
      "ĠJoey": 4040,
      "Ġstayed": 4041,
      "Ġaware": 4042,
      "Ġleads": 4043,
      "cellent": 4044,
      "ĠFriday": 4045,
      "ted": 4046,
      "Ġmountain": 4047,
      "Ġbright": 4048,
      "Ġgarden": 4049,
      "Ġpush": 4050,
      "Ġpardon": 4051,
      "Ġthrew": 4052,
      "Ġhors": 4053,
      "ĠHE": 4054,
      "Ġlift": 4055,
      "Ġrese": 4056,
      "Ġbutt": 4057,
      "romise": 4058,
      "Ġexpens": 4059,
      "ĠUntil": 4060,
      "ĠUnless": 4061,
      "ĠIndian": 4062,
      "Ġanimals": 4063,
      "ĠBaby": 4064,
      "ĠFrancis": 4065,
      "AS": 4066,
      "And": 4067,
      "cut": 4068,
      "ij": 4069,
      "Ġtar": 4070,
      "Ġbite": 4071,
      "ising": 4072,
      "imp": 4073,
      "Ġweather": 4074,
      "Ġknife": 4075,
      "Ġstrength": 4076,
      "ĠThirty": 4077,
      "ĠAnnie": 4078,
      "Ġfollowed": 4079,
      "Ġdogs": 4080,
      "Ġballs": 4081,
      "Ġdisturb": 4082,
      "Ġcloser": 4083,
      "Ġwatched": 4084,
      "ĠGordon": 4085,
      "Ġtour": 4086,
      "Ġloud": 4087,
      "Ġport": 4088,
      "ĠTonight": 4089,
      "ato": 4090,
      "ĠBye": 4091,
      "Ġreasons": 4092,
      "Ġupon": 4093,
      "itty": 4094,
      "Ġsport": 4095
    },
    "merges": [
      [
        "Ġ",
        "t"
      ],
      [
        "o",
        "u"
      ],
      [
        "h",
        "e"
      ],
      [
        "Ġ",
        "a"
      ],
      [
        "i",
        "n"
      ],
      [
        "Ġ",
        "w"
      ],
      [
        "Ġ",
        "I"
      ],
      [
        "r",
        "e"
      ],
      [
        "Ġ",
        "s"
      ],
      [
        "h",
        "a"
      ],
      [
        "Ġ",
        "y"
      ],
      [
        "o",
        "n"
      ],
      [
        "Ġy",
        "ou"
      ],
      [
        "Ġ",
        "m"
      ],
      [
        "Ġt",
        "he"
      ],
      [
        "Ġ",
        "d"
      ],
      [
        "i",
        "t"
      ],
      [
        "Ġ",
        "b"
      ],
      [
        ".",
        "."
      ],
      [
        "l",
        "l"
      ],
      [
        "e",
        "r"
      ],
      [
        "in",
        "g"
      ],
      [
        "Ġt",
        "o"
      ],
      [
        "Ġ",
        "c"
      ],
      [
        "a",
        "n"
      ],
      [
        "ha",
        "t"
      ],
      [
        "i",
        "s"
      ],
      [
        "Ġ",
        "g"
      ],
      [
        "Ġ",
        "f"
      ],
      [
        "o",
        "r"
      ],
      [
        "e",
        "n"
      ],
      [
        "Ġ",
        "l"
      ],
      [
        "Ġ",
        "W"
      ],
      [
        "'",
        "s"
      ],
      [
        "o",
        "w"
      ],
      [
        "v",
        "e"
      ],
      [
        "Ġ",
        "n"
      ],
      [
        "n",
        "d"
      ],
      [
        "o",
        "t"
      ],
      [
        "e",
        "s"
      ],
      [
        "Ġ",
        "p"
      ],
      [
        "Ġ",
        "T"
      ],
      [
        "Ġ",
        "o"
      ],
      [
        "'",
        "t"
      ],
      [
        "Ġ",
        "Y"
      ],
      [
        "e",
        "d"
      ],
      [
        "e",
        "t"
      ],
      [
        "o",
        "m"
      ],
      [
        "a",
        "r"
      ],
      [
        "Ġt",
        "h"
      ],
      [
        "Ġ",
        "he"
      ],
      [
        "..",
        "."
      ],
      [
        "Ġ",
        "it"
      ],
      [
        "s",
        "t"
      ],
      [
        "a",
        "y"
      ],
      [
        "Ġ",
        "h"
      ],
      [
        "Ġ",
        "in"
      ],
      [
        "Ġ",
        "ha"
      ],
      [
        "Ġo",
        "f"
      ],
      [
        "a",
        "t"
      ],
      [
        "Ġm",
        "e"
      ],
      [
        "Ġb",
        "e"
      ],
      [
        "Ġ",
        "k"
      ],
      [
        "ĠY",
        "ou"
      ],
      [
        "a",
        "s"
      ],
      [
        "i",
        "d"
      ],
      [
        "Ġ",
        "S"
      ],
      [
        "l",
        "e"
      ],
      [
        "Ġ",
        "A"
      ],
      [
        "Ġt",
        "hat"
      ],
      [
        "g",
        "h"
      ],
      [
        "Ġ",
        "H"
      ],
      [
        "Ġa",
        "nd"
      ],
      [
        "l",
        "d"
      ],
      [
        "Ġ",
        "on"
      ],
      [
        "u",
        "t"
      ],
      [
        "ou",
        "t"
      ],
      [
        "c",
        "k"
      ],
      [
        "Ġd",
        "o"
      ],
      [
        "s",
        "e"
      ],
      [
        "k",
        "e"
      ],
      [
        "i",
        "m"
      ],
      [
        "Ġw",
        "e"
      ],
      [
        "Ġ",
        "u"
      ],
      [
        "a",
        "l"
      ],
      [
        "Ġ",
        "e"
      ],
      [
        "gh",
        "t"
      ],
      [
        "Ġ",
        "M"
      ],
      [
        "Ġ",
        "is"
      ],
      [
        "v",
        "er"
      ],
      [
        "-",
        "-"
      ],
      [
        "Ġ",
        "N"
      ],
      [
        "o",
        "o"
      ],
      [
        "r",
        "i"
      ],
      [
        "Ġk",
        "n"
      ],
      [
        "Ġ",
        "B"
      ],
      [
        "Ġf",
        "or"
      ],
      [
        "ĠT",
        "he"
      ],
      [
        "Ġkn",
        "ow"
      ],
      [
        "Ġ",
        "D"
      ],
      [
        "'",
        "m"
      ],
      [
        "c",
        "e"
      ],
      [
        "Ġl",
        "i"
      ],
      [
        "Ġ",
        "re"
      ],
      [
        "a",
        "d"
      ],
      [
        "Ġd",
        "on"
      ],
      [
        "'",
        "re"
      ],
      [
        "Ġs",
        "t"
      ],
      [
        "ĠW",
        "hat"
      ],
      [
        "u",
        "st"
      ],
      [
        "Ġw",
        "as"
      ],
      [
        "Ġ",
        "C"
      ],
      [
        "Ġa",
        "n"
      ],
      [
        "Ġyou",
        "r"
      ],
      [
        "e",
        "ll"
      ],
      [
        "Ġha",
        "ve"
      ],
      [
        "ou",
        "ld"
      ],
      [
        "om",
        "e"
      ],
      [
        "Ġn",
        "ot"
      ],
      [
        "Ġ",
        "--"
      ],
      [
        "Ġg",
        "o"
      ],
      [
        "i",
        "r"
      ],
      [
        "an",
        "t"
      ],
      [
        "it",
        "h"
      ],
      [
        "a",
        "m"
      ],
      [
        "c",
        "h"
      ],
      [
        "i",
        "ll"
      ],
      [
        "Ġth",
        "is"
      ],
      [
        "Ġ",
        "O"
      ],
      [
        "Ġm",
        "y"
      ],
      [
        "e",
        "e"
      ],
      [
        "Ġ",
        "j"
      ],
      [
        "Ġw",
        "ith"
      ],
      [
        "en",
        "t"
      ],
      [
        "Ġw",
        "hat"
      ],
      [
        "ĠI",
        "t"
      ],
      [
        "l",
        "y"
      ],
      [
        "a",
        "ll"
      ],
      [
        "Ġ",
        "L"
      ],
      [
        "i",
        "on"
      ],
      [
        "Ġc",
        "an"
      ],
      [
        "c",
        "t"
      ],
      [
        "Ġ",
        "G"
      ],
      [
        "i",
        "f"
      ],
      [
        "e",
        "a"
      ],
      [
        "he",
        "r"
      ],
      [
        "h",
        "ing"
      ],
      [
        "r",
        "o"
      ],
      [
        "Ġa",
        "b"
      ],
      [
        "h",
        "o"
      ],
      [
        "Ġg",
        "et"
      ],
      [
        "ĠH",
        "e"
      ],
      [
        "Ġa",
        "re"
      ],
      [
        "Ġn",
        "e"
      ],
      [
        "in",
        "k"
      ],
      [
        "Ġ",
        "out"
      ],
      [
        "'",
        "ll"
      ],
      [
        "Ġw",
        "ant"
      ],
      [
        "Ġli",
        "ke"
      ],
      [
        "Ġab",
        "out"
      ],
      [
        "r",
        "a"
      ],
      [
        "Ġa",
        "ll"
      ],
      [
        "ĠN",
        "o"
      ],
      [
        "Ġ",
        "J"
      ],
      [
        "t",
        "er"
      ],
      [
        "Ġj",
        "ust"
      ],
      [
        "Ġg",
        "ot"
      ],
      [
        "r",
        "y"
      ],
      [
        "Ġa",
        "s"
      ],
      [
        "i",
        "c"
      ],
      [
        "Ġh",
        "im"
      ],
      [
        "on",
        "e"
      ],
      [
        "Ġd",
        "id"
      ],
      [
        "a",
        "ke"
      ],
      [
        "Ġu",
        "p"
      ],
      [
        "Ġth",
        "ink"
      ],
      [
        "Ġ",
        "P"
      ],
      [
        "i",
        "ght"
      ],
      [
        "Ġ",
        "F"
      ],
      [
        "u",
        "r"
      ],
      [
        "p",
        "p"
      ],
      [
        "Ġhe",
        "re"
      ],
      [
        "ĠW",
        "e"
      ],
      [
        "i",
        "e"
      ],
      [
        "Ġa",
        "t"
      ],
      [
        "Ġs",
        "h"
      ],
      [
        "u",
        "n"
      ],
      [
        "oo",
        "k"
      ],
      [
        "ĠT",
        "hat"
      ],
      [
        "Ġs",
        "o"
      ],
      [
        "'",
        "ve"
      ],
      [
        "Ġan",
        "y"
      ],
      [
        "ĠA",
        "nd"
      ],
      [
        "Ġ",
        "R"
      ],
      [
        "o",
        "re"
      ],
      [
        "Ġthe",
        "y"
      ],
      [
        "Ġthe",
        "re"
      ],
      [
        "oo",
        "d"
      ],
      [
        "h",
        "y"
      ],
      [
        "ou",
        "r"
      ],
      [
        "Ġw",
        "or"
      ],
      [
        "an",
        "d"
      ],
      [
        "o",
        "p"
      ],
      [
        "ri",
        "ght"
      ],
      [
        "a",
        "ck"
      ],
      [
        "in",
        "d"
      ],
      [
        "Ġs",
        "u"
      ],
      [
        "ver",
        "y"
      ],
      [
        "i",
        "l"
      ],
      [
        "Ġb",
        "ut"
      ],
      [
        "Ġon",
        "e"
      ],
      [
        "Ġ",
        "E"
      ],
      [
        "i",
        "ve"
      ],
      [
        "Ġhe",
        "r"
      ],
      [
        "es",
        "s"
      ],
      [
        "ha",
        "n"
      ],
      [
        "u",
        "s"
      ],
      [
        "o",
        "d"
      ],
      [
        "Ġs",
        "ee"
      ],
      [
        "Ġw",
        "he"
      ],
      [
        "Ġn",
        "o"
      ],
      [
        "Ġs",
        "ome"
      ],
      [
        "Ġd",
        "e"
      ],
      [
        "ar",
        "t"
      ],
      [
        "Ġ",
        "right"
      ],
      [
        "Ġ",
        "if"
      ],
      [
        "Ġgo",
        "ing"
      ],
      [
        "ĠB",
        "ut"
      ],
      [
        "ot",
        "her"
      ],
      [
        "all",
        "y"
      ],
      [
        "Ġs",
        "ay"
      ],
      [
        "Ġ",
        "Ġ"
      ],
      [
        "r",
        "om"
      ],
      [
        "i",
        "g"
      ],
      [
        "a",
        "u"
      ],
      [
        "g",
        "e"
      ],
      [
        "Ġa",
        "l"
      ],
      [
        "u",
        "ck"
      ],
      [
        "Ġ",
        "r"
      ],
      [
        "en",
        "d"
      ],
      [
        "ow",
        "n"
      ],
      [
        "a",
        "in"
      ],
      [
        "is",
        "t"
      ],
      [
        "Ġw",
        "ould"
      ],
      [
        "ĠW",
        "ell"
      ],
      [
        "Ġs",
        "a"
      ],
      [
        "Ġs",
        "he"
      ],
      [
        "im",
        "e"
      ],
      [
        "ĠO",
        "h"
      ],
      [
        "al",
        "k"
      ],
      [
        "es",
        "t"
      ],
      [
        "Ġu",
        "s"
      ],
      [
        "'",
        "d"
      ],
      [
        "Ġm",
        "an"
      ],
      [
        "ea",
        "h"
      ],
      [
        "Ġl",
        "o"
      ],
      [
        "Ġp",
        "l"
      ],
      [
        "on",
        "g"
      ],
      [
        "Ġ",
        "..."
      ],
      [
        "Ġw",
        "ho"
      ],
      [
        "v",
        "en"
      ],
      [
        "Ġ",
        "or"
      ],
      [
        "am",
        "e"
      ],
      [
        "r",
        "ou"
      ],
      [
        "re",
        "d"
      ],
      [
        "Ġc",
        "ould"
      ],
      [
        "a",
        "st"
      ],
      [
        "om",
        "et"
      ],
      [
        "Ġg",
        "u"
      ],
      [
        "Ġwe",
        "re"
      ],
      [
        "Ġth",
        "ing"
      ],
      [
        "ĠH",
        "ow"
      ],
      [
        "w",
        "ay"
      ],
      [
        "Ġt",
        "ell"
      ],
      [
        "e",
        "m"
      ],
      [
        "Ġh",
        "is"
      ],
      [
        "er",
        "s"
      ],
      [
        "a",
        "b"
      ],
      [
        "Ġn",
        "ow"
      ],
      [
        "o",
        "s"
      ],
      [
        "u",
        "l"
      ],
      [
        "ĠY",
        "es"
      ],
      [
        "o",
        "l"
      ],
      [
        "ĠThe",
        "y"
      ],
      [
        "Ġf",
        "rom"
      ],
      [
        "Ġbe",
        "en"
      ],
      [
        "e",
        "ar"
      ],
      [
        "Ġt",
        "ime"
      ],
      [
        "f",
        "e"
      ],
      [
        "in",
        "e"
      ],
      [
        "Ġme",
        "an"
      ],
      [
        "ĠY",
        "eah"
      ],
      [
        "n",
        "a"
      ],
      [
        "at",
        "e"
      ],
      [
        "Ġthe",
        "m"
      ],
      [
        "ĠT",
        "h"
      ],
      [
        "Ġ",
        "-"
      ],
      [
        "ar",
        "d"
      ],
      [
        "Ġb",
        "ack"
      ],
      [
        "u",
        "m"
      ],
      [
        "a",
        "k"
      ],
      [
        "Ġe",
        "x"
      ],
      [
        "i",
        "ce"
      ],
      [
        "q",
        "u"
      ],
      [
        "Ġl",
        "ook"
      ],
      [
        "Ġc",
        "om"
      ],
      [
        "it",
        "t"
      ],
      [
        "Ġs",
        "e"
      ],
      [
        "i",
        "ck"
      ],
      [
        "t",
        "hing"
      ],
      [
        "Ġha",
        "d"
      ],
      [
        "l",
        "f"
      ],
      [
        "Ġw",
        "ill"
      ],
      [
        "Ġt",
        "alk"
      ],
      [
        "at",
        "ion"
      ],
      [
        "Ġs",
        "omet"
      ],
      [
        "Ġg",
        "ood"
      ],
      [
        "Ġdid",
        "n"
      ],
      [
        "ĠW",
        "he"
      ],
      [
        "u",
        "re"
      ],
      [
        "ĠW",
        "hy"
      ],
      [
        "Ġto",
        "o"
      ],
      [
        "ĠS",
        "he"
      ],
      [
        "Ġof",
        "f"
      ],
      [
        "ou",
        "s"
      ],
      [
        "n",
        "t"
      ],
      [
        "ĠS",
        "o"
      ],
      [
        "h",
        "i"
      ],
      [
        "Ġc",
        "on"
      ],
      [
        "ĠD",
        "o"
      ],
      [
        "Ġwhe",
        "n"
      ],
      [
        "a",
        "re"
      ],
      [
        "b",
        "e"
      ],
      [
        "Ġw",
        "ay"
      ],
      [
        "Ġ",
        "\""
      ],
      [
        "Ġp",
        "ro"
      ],
      [
        "Ġs",
        "p"
      ],
      [
        "or",
        "t"
      ],
      [
        "Ġsomet",
        "hing"
      ],
      [
        "Ġne",
        "ver"
      ],
      [
        "Ġin",
        "t"
      ],
      [
        "Ġh",
        "ow"
      ],
      [
        "Ġa",
        "g"
      ],
      [
        "e",
        "l"
      ],
      [
        "od",
        "y"
      ],
      [
        "Ġc",
        "ome"
      ],
      [
        "Ġne",
        "ed"
      ],
      [
        "Ġt",
        "ake"
      ],
      [
        "Ġ",
        "K"
      ],
      [
        "Ġc",
        "all"
      ],
      [
        "Ġwor",
        "k"
      ],
      [
        "Ġe",
        "very"
      ],
      [
        "b",
        "le"
      ],
      [
        "o",
        "se"
      ],
      [
        "Ġt",
        "w"
      ],
      [
        "ĠD",
        "on"
      ],
      [
        "au",
        "se"
      ],
      [
        "itt",
        "le"
      ],
      [
        "ĠI",
        "f"
      ],
      [
        "ĠTh",
        "is"
      ],
      [
        "Ġ",
        "'"
      ],
      [
        "Ġha",
        "pp"
      ],
      [
        "t",
        "y"
      ],
      [
        "Ġd",
        "own"
      ],
      [
        "re",
        "s"
      ],
      [
        "Ġm",
        "ake"
      ],
      [
        "ĠM",
        "r"
      ],
      [
        "k",
        "ay"
      ],
      [
        "e",
        "w"
      ],
      [
        "ĠN",
        "ot"
      ],
      [
        "Ġo",
        "ver"
      ],
      [
        "a",
        "p"
      ],
      [
        "e",
        "op"
      ],
      [
        "as",
        "e"
      ],
      [
        "f",
        "f"
      ],
      [
        "Ġl",
        "ittle"
      ],
      [
        "on",
        "na"
      ],
      [
        "Ġf",
        "uck"
      ],
      [
        "id",
        "e"
      ],
      [
        "eop",
        "le"
      ],
      [
        "Ġm",
        "ore"
      ],
      [
        "b",
        "er"
      ],
      [
        "Ġdo",
        "es"
      ],
      [
        "Ġg",
        "onna"
      ],
      [
        "a",
        "ce"
      ],
      [
        "ou",
        "ght"
      ],
      [
        "Ġsh",
        "ould"
      ],
      [
        "Ġsa",
        "id"
      ],
      [
        "b",
        "ody"
      ],
      [
        "ay",
        "be"
      ],
      [
        "Ġ",
        "v"
      ],
      [
        "se",
        "lf"
      ],
      [
        "Ġa",
        "m"
      ],
      [
        "Ġre",
        "ally"
      ],
      [
        "Ġgu",
        "y"
      ],
      [
        "Ġl",
        "et"
      ],
      [
        "ĠThe",
        "re"
      ],
      [
        "o",
        "y"
      ],
      [
        "e",
        "ct"
      ],
      [
        "a",
        "g"
      ],
      [
        "Ġm",
        "u"
      ],
      [
        "re",
        "at"
      ],
      [
        "Ġk",
        "ill"
      ],
      [
        "Ġt",
        "han"
      ],
      [
        "Ġt",
        "r"
      ],
      [
        "Ġ",
        "our"
      ],
      [
        "Ġha",
        "s"
      ],
      [
        "Ġp",
        "eople"
      ],
      [
        "Ġb",
        "et"
      ],
      [
        "c",
        "ause"
      ],
      [
        "<",
        "/"
      ],
      [
        "Ġw",
        "on"
      ],
      [
        "Ġlo",
        "ve"
      ],
      [
        "nd",
        "er"
      ],
      [
        "Ġm",
        "o"
      ],
      [
        "is",
        "s"
      ],
      [
        "Ġb",
        "y"
      ],
      [
        "Ġ",
        "<"
      ],
      [
        "ĠS",
        "t"
      ],
      [
        "one",
        "y"
      ],
      [
        "Ġ",
        "qu"
      ],
      [
        "Ġc",
        "l"
      ],
      [
        "Ġthe",
        "n"
      ],
      [
        "t",
        "h"
      ],
      [
        "Ġmu",
        "ch"
      ],
      [
        "Ġ",
        "U"
      ],
      [
        "ĠĠ",
        "ĠĠ"
      ],
      [
        "re",
        "e"
      ],
      [
        "Ġhapp",
        "en"
      ],
      [
        "Ġon",
        "ly"
      ],
      [
        "Ġd",
        "ay"
      ],
      [
        "u",
        "d"
      ],
      [
        "Ġa",
        "f"
      ],
      [
        "¿",
        "½"
      ],
      [
        "ï",
        "¿½"
      ],
      [
        "v",
        "ing"
      ],
      [
        "Ġw",
        "hy"
      ],
      [
        "ĠWhe",
        "re"
      ],
      [
        "Ġy",
        "ear"
      ],
      [
        "ĠW",
        "ho"
      ],
      [
        "ee",
        "l"
      ],
      [
        "Ġb",
        "l"
      ],
      [
        "Ġwhe",
        "re"
      ],
      [
        "ĠI",
        "s"
      ],
      [
        "ou",
        "nd"
      ],
      [
        "Ġ",
        "very"
      ],
      [
        "it",
        "y"
      ],
      [
        "Ġu",
        "nder"
      ],
      [
        "it",
        "e"
      ],
      [
        "l",
        "ie"
      ],
      [
        "rou",
        "nd"
      ],
      [
        "Ġ",
        "en"
      ],
      [
        "i",
        "es"
      ],
      [
        "Ġs",
        "c"
      ],
      [
        "ou",
        "gh"
      ],
      [
        "Ġw",
        "r"
      ],
      [
        "Ġl",
        "ea"
      ],
      [
        "Ġ",
        "V"
      ],
      [
        "Ġc",
        "o"
      ],
      [
        "Ġ",
        "other"
      ],
      [
        "Ġth",
        "ought"
      ],
      [
        "or",
        "ry"
      ],
      [
        "ĠM",
        "y"
      ],
      [
        "n",
        "y"
      ],
      [
        "Ġas",
        "k"
      ],
      [
        "o",
        "b"
      ],
      [
        "ee",
        "p"
      ],
      [
        "Ġe",
        "ven"
      ],
      [
        "Ġsu",
        "re"
      ],
      [
        "ĠJ",
        "ust"
      ],
      [
        "p",
        "l"
      ],
      [
        "ri",
        "end"
      ],
      [
        "Ġany",
        "thing"
      ],
      [
        "Ġf",
        "eel"
      ],
      [
        "ĠN",
        "ow"
      ],
      [
        "Ġl",
        "e"
      ],
      [
        "Ġ",
        "ro"
      ],
      [
        "Ġg",
        "ive"
      ],
      [
        "Ġtw",
        "o"
      ],
      [
        "l",
        "p"
      ],
      [
        "t",
        "a"
      ],
      [
        "u",
        "e"
      ],
      [
        "Ġint",
        "o"
      ],
      [
        "k",
        "s"
      ],
      [
        "Ġn",
        "ight"
      ],
      [
        "f",
        "ore"
      ],
      [
        "u",
        "ll"
      ],
      [
        "e",
        "p"
      ],
      [
        "t",
        "ing"
      ],
      [
        "a",
        "it"
      ],
      [
        "Ġdo",
        "ing"
      ],
      [
        "n",
        "ing"
      ],
      [
        "Ġag",
        "ain"
      ],
      [
        "Ġf",
        "ind"
      ],
      [
        "Ġt",
        "ry"
      ],
      [
        "at",
        "her"
      ],
      [
        "a",
        "c"
      ],
      [
        "ir",
        "st"
      ],
      [
        "as",
        "s"
      ],
      [
        "Ġli",
        "fe"
      ],
      [
        "Ġl",
        "ong"
      ],
      [
        "Ġe",
        "ver"
      ],
      [
        "Ġhe",
        "lp"
      ],
      [
        "is",
        "h"
      ],
      [
        "Ġm",
        "oney"
      ],
      [
        "p",
        "er"
      ],
      [
        "ad",
        "y"
      ],
      [
        "Ġto",
        "ld"
      ],
      [
        "m",
        "ent"
      ],
      [
        "re",
        "t"
      ],
      [
        "r",
        "ow"
      ],
      [
        "Ġa",
        "round"
      ],
      [
        "ad",
        "e"
      ],
      [
        "i",
        "re"
      ],
      [
        "Ġb",
        "r"
      ],
      [
        "n",
        "e"
      ],
      [
        "Ġbe",
        "fore"
      ],
      [
        "ĠA",
        "re"
      ],
      [
        "Ġbe",
        "lie"
      ],
      [
        "r",
        "an"
      ],
      [
        "Ġg",
        "ir"
      ],
      [
        "way",
        "s"
      ],
      [
        "Ġthing",
        "s"
      ],
      [
        "ĠD",
        "id"
      ],
      [
        "g",
        "et"
      ],
      [
        "Ġ",
        "im"
      ],
      [
        "ĠI",
        "n"
      ],
      [
        "a",
        "ve"
      ],
      [
        "Ġm",
        "ust"
      ],
      [
        "Ġst",
        "ill"
      ],
      [
        "i",
        "z"
      ],
      [
        "Ġp",
        "ut"
      ],
      [
        "Ġbelie",
        "ve"
      ],
      [
        "ĠB",
        "e"
      ],
      [
        "ĠL",
        "ook"
      ],
      [
        "oo",
        "l"
      ],
      [
        "ĠA",
        "ll"
      ],
      [
        "Ġf",
        "riend"
      ],
      [
        "ĠL",
        "et"
      ],
      [
        "a",
        "ge"
      ],
      [
        "Ġk",
        "ind"
      ],
      [
        "ĠG",
        "od"
      ],
      [
        "le",
        "ase"
      ],
      [
        "Ġyear",
        "s"
      ],
      [
        "Ġc",
        "ar"
      ],
      [
        "Ġbet",
        "ter"
      ],
      [
        "Ġp",
        "o"
      ],
      [
        "c",
        "i"
      ],
      [
        "Ġs",
        "orry"
      ],
      [
        "Ġk",
        "id"
      ],
      [
        "a",
        "ct"
      ],
      [
        "Ġre",
        "m"
      ],
      [
        "ĠThe",
        "n"
      ],
      [
        "Ġh",
        "u"
      ],
      [
        "Ġu",
        "n"
      ],
      [
        "Ġl",
        "ast"
      ],
      [
        "Ġwe",
        "ll"
      ],
      [
        "Ġa",
        "way"
      ],
      [
        "Ġs",
        "ir"
      ],
      [
        "Ġal",
        "ways"
      ],
      [
        "Ġgir",
        "l"
      ],
      [
        "Ġo",
        "ld"
      ],
      [
        "Ġa",
        "r"
      ],
      [
        "on",
        "d"
      ],
      [
        "Ġp",
        "art"
      ],
      [
        "ri",
        "ed"
      ],
      [
        "res",
        "s"
      ],
      [
        "Ġaf",
        "ter"
      ],
      [
        "ĠM",
        "aybe"
      ],
      [
        "Ġf",
        "irst"
      ],
      [
        "or",
        "d"
      ],
      [
        "ur",
        "n"
      ],
      [
        "f",
        "t"
      ],
      [
        "Ġc",
        "are"
      ],
      [
        "Ġk",
        "eep"
      ],
      [
        "Ġc",
        "our"
      ],
      [
        "Ġn",
        "ame"
      ],
      [
        "st",
        "and"
      ],
      [
        "ist",
        "en"
      ],
      [
        "Ġpl",
        "ace"
      ],
      [
        "Ġre",
        "al"
      ],
      [
        "i",
        "x"
      ],
      [
        "Ġl",
        "ot"
      ],
      [
        "Ġc",
        "ou"
      ],
      [
        "Ġthe",
        "se"
      ],
      [
        "ĠO",
        "kay"
      ],
      [
        "n",
        "g"
      ],
      [
        "Ġthe",
        "ir"
      ],
      [
        "is",
        "e"
      ],
      [
        "Ġh",
        "ome"
      ],
      [
        "Ġc",
        "han"
      ],
      [
        "Ġnot",
        "hing"
      ],
      [
        "ĠT",
        "han"
      ],
      [
        "p",
        "t"
      ],
      [
        "Ġm",
        "in"
      ],
      [
        "d",
        "ay"
      ],
      [
        "Ġth",
        "ose"
      ],
      [
        "Ġw",
        "hi"
      ],
      [
        "Ġne",
        "w"
      ],
      [
        "in",
        "t"
      ],
      [
        "Ġb",
        "ig"
      ],
      [
        "ĠC",
        "h"
      ],
      [
        "Ġdoes",
        "n"
      ],
      [
        "Ġas",
        "s"
      ],
      [
        "em",
        "ber"
      ],
      [
        "ĠWhe",
        "n"
      ],
      [
        "Ġb",
        "ad"
      ],
      [
        "ĠC",
        "an"
      ],
      [
        "Ġbe",
        "cause"
      ],
      [
        "a",
        "ch"
      ],
      [
        "Ġm",
        "ar"
      ],
      [
        "Ġli",
        "ve"
      ],
      [
        "Ġunder",
        "stand"
      ],
      [
        "ĠJ",
        "o"
      ],
      [
        "or",
        "y"
      ],
      [
        "Ġs",
        "w"
      ],
      [
        "ou",
        "se"
      ],
      [
        "Ġe",
        "l"
      ],
      [
        "ĠYou",
        "r"
      ],
      [
        "Ġ",
        "."
      ],
      [
        "at",
        "ch"
      ],
      [
        "Ġst",
        "art"
      ],
      [
        "ha",
        "r"
      ],
      [
        "Ġha",
        "nd"
      ],
      [
        "d",
        "er"
      ],
      [
        "ĠHe",
        "y"
      ],
      [
        "Ġb",
        "u"
      ],
      [
        "s",
        "p"
      ],
      [
        "Ġs",
        "m"
      ],
      [
        "ĠG",
        "ood"
      ],
      [
        "ar",
        "y"
      ],
      [
        "d",
        "d"
      ],
      [
        "Ġa",
        "c"
      ],
      [
        "Ġpl",
        "ay"
      ],
      [
        "Ġo",
        "kay"
      ],
      [
        "Ġd",
        "r"
      ],
      [
        "m",
        "an"
      ],
      [
        "Ġsh",
        "it"
      ],
      [
        "Ġhe",
        "ll"
      ],
      [
        "Ġb",
        "oy"
      ],
      [
        "Ġis",
        "n"
      ],
      [
        "Ġsu",
        "pp"
      ],
      [
        "Ġb",
        "us"
      ],
      [
        "Ġhe",
        "ar"
      ],
      [
        "ab",
        "le"
      ],
      [
        "Ġg",
        "reat"
      ],
      [
        "Ġtalk",
        "ing"
      ],
      [
        "Ġcour",
        "se"
      ],
      [
        "e",
        "ver"
      ],
      [
        "Ġd",
        "is"
      ],
      [
        "Ġw",
        "ait"
      ],
      [
        "Ġwould",
        "n"
      ],
      [
        "Ġr",
        "un"
      ],
      [
        "i",
        "p"
      ],
      [
        "Ġel",
        "se"
      ],
      [
        "at",
        "er"
      ],
      [
        "Ġm",
        "ight"
      ],
      [
        "ut",
        "e"
      ],
      [
        "Ġ",
        "own"
      ],
      [
        "i",
        "ke"
      ],
      [
        "ĠF",
        "or"
      ],
      [
        "Ġde",
        "ad"
      ],
      [
        "f",
        "ul"
      ],
      [
        "am",
        "n"
      ],
      [
        "Ġgu",
        "ess"
      ],
      [
        "ĠR",
        "e"
      ],
      [
        "Ġa",
        "ct"
      ],
      [
        "Ġf",
        "l"
      ],
      [
        "Ġm",
        "ade"
      ],
      [
        "Ġwr",
        "ong"
      ],
      [
        "Ġst",
        "ay"
      ],
      [
        "Ġwant",
        "ed"
      ],
      [
        "Ġst",
        "u"
      ],
      [
        "Ġw",
        "om"
      ],
      [
        "Ġse",
        "c"
      ],
      [
        "o",
        "g"
      ],
      [
        "s",
        "i"
      ],
      [
        "Ġevery",
        "thing"
      ],
      [
        "Ġsh",
        "ow"
      ],
      [
        "a",
        "w"
      ],
      [
        "o",
        "ld"
      ],
      [
        "Ġp",
        "er"
      ],
      [
        "he",
        "d"
      ],
      [
        "e",
        "en"
      ],
      [
        "Ġhappen",
        "ed"
      ],
      [
        "Ġm",
        "ind"
      ],
      [
        "o",
        "ck"
      ],
      [
        "ak",
        "ing"
      ],
      [
        "rou",
        "gh"
      ],
      [
        "Ġlea",
        "ve"
      ],
      [
        "Ġc",
        "he"
      ],
      [
        "en",
        "ce"
      ],
      [
        "at",
        "ter"
      ],
      [
        "ar",
        "s"
      ],
      [
        "Ġyour",
        "self"
      ],
      [
        "t",
        "ain"
      ],
      [
        "Ġha",
        "r"
      ],
      [
        "Ġen",
        "ough"
      ],
      [
        "Ġp",
        "r"
      ],
      [
        "a",
        "v"
      ],
      [
        "Ġrem",
        "ember"
      ],
      [
        "Ġ",
        "id"
      ],
      [
        "Ġth",
        "rough"
      ],
      [
        "i",
        "ous"
      ],
      [
        "re",
        "n"
      ],
      [
        "Ġdon",
        "e"
      ],
      [
        "Ġj",
        "ob"
      ],
      [
        "ĠS",
        "h"
      ],
      [
        "ĠC",
        "ome"
      ],
      [
        "ig",
        "n"
      ],
      [
        "im",
        "es"
      ],
      [
        "Ġc",
        "ra"
      ],
      [
        "Ġt",
        "ra"
      ],
      [
        "Ġa",
        "in"
      ],
      [
        "if",
        "e"
      ],
      [
        "Ġim",
        "p"
      ],
      [
        "Ġhe",
        "ad"
      ],
      [
        "i",
        "ct"
      ],
      [
        "Ġh",
        "ouse"
      ],
      [
        "Ġwas",
        "n"
      ],
      [
        "ion",
        "s"
      ],
      [
        "Ġwe",
        "e"
      ],
      [
        "Ġgot",
        "ta"
      ],
      [
        "an",
        "s"
      ],
      [
        "ĠA",
        "l"
      ],
      [
        "Ġc",
        "ame"
      ],
      [
        "?",
        "!"
      ],
      [
        ".",
        "\""
      ],
      [
        "p",
        "s"
      ],
      [
        "Ġle",
        "ft"
      ],
      [
        "Ġth",
        "ree"
      ],
      [
        "g",
        "er"
      ],
      [
        "an",
        "ce"
      ],
      [
        "Ġy",
        "es"
      ],
      [
        "in",
        "ess"
      ],
      [
        "Ġwor",
        "ld"
      ],
      [
        "Ġget",
        "ting"
      ],
      [
        "ĠĠĠĠ",
        "ĠĠĠĠ"
      ],
      [
        "at",
        "h"
      ],
      [
        "Ġm",
        "aybe"
      ],
      [
        "p",
        "le"
      ],
      [
        "ak",
        "es"
      ],
      [
        "Ġfuck",
        "ing"
      ],
      [
        "Ġf",
        "ather"
      ],
      [
        "ers",
        "on"
      ],
      [
        "Ġbe",
        "ing"
      ],
      [
        "Ġsa",
        "w"
      ],
      [
        "u",
        "b"
      ],
      [
        "..",
        ".."
      ],
      [
        "re",
        "st"
      ],
      [
        "m",
        "y"
      ],
      [
        "Ġkn",
        "ew"
      ],
      [
        "m",
        "s"
      ],
      [
        "he",
        "re"
      ],
      [
        "a",
        "il"
      ],
      [
        "ĠA",
        "n"
      ],
      [
        "Ġro",
        "om"
      ],
      [
        "Ġm",
        "other"
      ],
      [
        "m",
        "er"
      ],
      [
        "Ġan",
        "other"
      ],
      [
        "Ġtry",
        "ing"
      ],
      [
        "p",
        "e"
      ],
      [
        "Ġsome",
        "one"
      ],
      [
        "Ġw",
        "ent"
      ],
      [
        "Ġs",
        "ho"
      ],
      [
        "Ġm",
        "on"
      ],
      [
        "o",
        "ll"
      ],
      [
        "p",
        "en"
      ],
      [
        "o",
        "st"
      ],
      [
        "Ġs",
        "er"
      ],
      [
        "Ġhe",
        "ard"
      ],
      [
        "n",
        "er"
      ],
      [
        "ĠG",
        "o"
      ],
      [
        "Ġd",
        "if"
      ],
      [
        "Ġre",
        "c"
      ],
      [
        "Ġ",
        "ra"
      ],
      [
        "Ġm",
        "atter"
      ],
      [
        "ent",
        "y"
      ],
      [
        "Ġp",
        "ret"
      ],
      [
        "Ġm",
        "or"
      ],
      [
        "in",
        "ce"
      ],
      [
        "ct",
        "or"
      ],
      [
        "Ġwho",
        "le"
      ],
      [
        "ĠG",
        "et"
      ],
      [
        "...",
        "?"
      ],
      [
        "i",
        "a"
      ],
      [
        "h",
        "n"
      ],
      [
        "s",
        "ide"
      ],
      [
        "ve",
        "d"
      ],
      [
        "d",
        "y"
      ],
      [
        "Ġn",
        "ice"
      ],
      [
        "Ġme",
        "et"
      ],
      [
        "Ġse",
        "en"
      ],
      [
        "Ġa",
        "d"
      ],
      [
        "ar",
        "k"
      ],
      [
        "or",
        "row"
      ],
      [
        "on",
        "ight"
      ],
      [
        "os",
        "ed"
      ],
      [
        "ĠS",
        "ure"
      ],
      [
        "at",
        "ed"
      ],
      [
        "Ġhar",
        "d"
      ],
      [
        "Ġs",
        "ame"
      ],
      [
        "a",
        "ir"
      ],
      [
        "x",
        "t"
      ],
      [
        "on",
        "s"
      ],
      [
        "Ġs",
        "l"
      ],
      [
        "ur",
        "t"
      ],
      [
        "Ġbus",
        "iness"
      ],
      [
        "or",
        "m"
      ],
      [
        "le",
        "ep"
      ],
      [
        "Ġguy",
        "s"
      ],
      [
        "i",
        "ly"
      ],
      [
        "i",
        "ed"
      ],
      [
        "Ġwor",
        "d"
      ],
      [
        "Ġp",
        "erson"
      ],
      [
        "Ġha",
        "ven"
      ],
      [
        "ĠO",
        "f"
      ],
      [
        "ĠJo",
        "hn"
      ],
      [
        "Ġlook",
        "ing"
      ],
      [
        "Ġa",
        "pp"
      ],
      [
        "Ġcom",
        "ing"
      ],
      [
        "l",
        "es"
      ],
      [
        "Ġst",
        "op"
      ],
      [
        "ĠS",
        "ome"
      ],
      [
        "Ġqu",
        "est"
      ],
      [
        "e",
        "y"
      ],
      [
        "!",
        "!"
      ],
      [
        "Ġus",
        "ed"
      ],
      [
        "ĠE",
        "very"
      ],
      [
        "Ġpro",
        "ble"
      ],
      [
        "nd",
        "red"
      ],
      [
        "Ġf",
        "ine"
      ],
      [
        "Ġs",
        "ha"
      ],
      [
        "Ġf",
        "un"
      ],
      [
        "ĠO",
        "n"
      ],
      [
        "Ġt",
        "urn"
      ],
      [
        "r",
        "u"
      ],
      [
        "ĠA",
        "s"
      ],
      [
        "Ġh",
        "our"
      ],
      [
        "u",
        "ally"
      ],
      [
        "Ġpl",
        "an"
      ],
      [
        "Ġp",
        "h"
      ],
      [
        "Ġkill",
        "ed"
      ],
      [
        "ĠR",
        "ight"
      ],
      [
        "ar",
        "l"
      ],
      [
        "Ġid",
        "ea"
      ],
      [
        "Ġb",
        "est"
      ],
      [
        "Ġg",
        "r"
      ],
      [
        "ĠT",
        "o"
      ],
      [
        "ĠBe",
        "cause"
      ],
      [
        "ĠA",
        "ny"
      ],
      [
        "Ġde",
        "al"
      ],
      [
        "e",
        "et"
      ],
      [
        "Ġf",
        "am"
      ],
      [
        "Ġp",
        "os"
      ],
      [
        "ĠL",
        "ike"
      ],
      [
        "ĠT",
        "ell"
      ],
      [
        "i",
        "an"
      ],
      [
        "g",
        "g"
      ],
      [
        "Ġp",
        "ay"
      ],
      [
        "he",
        "s"
      ],
      [
        "re",
        "ak"
      ],
      [
        "Ġ",
        "hat"
      ],
      [
        "id",
        "ent"
      ],
      [
        "Ġt",
        "onight"
      ],
      [
        "Ġat",
        "t"
      ],
      [
        "Ġcall",
        "ed"
      ],
      [
        "Ġp",
        "lease"
      ],
      [
        "Ġm",
        "iss"
      ],
      [
        "i",
        "gh"
      ],
      [
        "Ġw",
        "alk"
      ],
      [
        "ĠU",
        "h"
      ],
      [
        "Ġman",
        "y"
      ],
      [
        "m",
        "m"
      ],
      [
        "Ġb",
        "it"
      ],
      [
        "ot",
        "h"
      ],
      [
        "z",
        "y"
      ],
      [
        "Ġmy",
        "self"
      ],
      [
        "Ġw",
        "ife"
      ],
      [
        "u",
        "h"
      ],
      [
        "Ġf",
        "ound"
      ],
      [
        "Ġcould",
        "n"
      ],
      [
        "Ġre",
        "ad"
      ],
      [
        "Ġac",
        "c"
      ],
      [
        "Ġwom",
        "an"
      ],
      [
        "Ġh",
        "op"
      ],
      [
        "ab",
        "ly"
      ],
      [
        "re",
        "am"
      ],
      [
        "a",
        "x"
      ],
      [
        "Ġb",
        "ab"
      ],
      [
        "Ġc",
        "le"
      ],
      [
        "Ġcom",
        "p"
      ],
      [
        "Ġm",
        "en"
      ],
      [
        "or",
        "s"
      ],
      [
        "Ġpret",
        "ty"
      ],
      [
        "is",
        "ter"
      ],
      [
        "i",
        "v"
      ],
      [
        "ĠH",
        "ell"
      ],
      [
        "Ġsay",
        "ing"
      ],
      [
        "Ġdif",
        "fe"
      ],
      [
        "ĠThan",
        "k"
      ],
      [
        "Ġhu",
        "ndred"
      ],
      [
        "Ġsay",
        "s"
      ],
      [
        "Ġs",
        "ch"
      ],
      [
        "Ġp",
        "ol"
      ],
      [
        "get",
        "her"
      ],
      [
        "ĠW",
        "ill"
      ],
      [
        "ic",
        "al"
      ],
      [
        "Ġstu",
        "ff"
      ],
      [
        "Ġb",
        "o"
      ],
      [
        "Ġc",
        "hi"
      ],
      [
        "Ġf",
        "ew"
      ],
      [
        "Ġ",
        "end"
      ],
      [
        "re",
        "ady"
      ],
      [
        "Ġy",
        "a"
      ],
      [
        "Ġu",
        "se"
      ],
      [
        "ĠE",
        "x"
      ],
      [
        "r",
        "ist"
      ],
      [
        "au",
        "ght"
      ],
      [
        "Ġl",
        "isten"
      ],
      [
        "Ġf",
        "in"
      ],
      [
        "Ġm",
        "ay"
      ],
      [
        "en",
        "se"
      ],
      [
        "Ġag",
        "o"
      ],
      [
        "Ġs",
        "on"
      ],
      [
        "Ġd",
        "es"
      ],
      [
        "Ġc",
        "r"
      ],
      [
        "Ġmor",
        "ning"
      ],
      [
        "Ġs",
        "ur"
      ],
      [
        "ut",
        "h"
      ],
      [
        "Ġw",
        "ar"
      ],
      [
        "Ġal",
        "ready"
      ],
      [
        "Ġp",
        "re"
      ],
      [
        "Ġd",
        "ri"
      ],
      [
        "Ġto",
        "gether"
      ],
      [
        "as",
        "on"
      ],
      [
        "Ġwhi",
        "le"
      ],
      [
        "Ġg",
        "l"
      ],
      [
        "Ġcon",
        "t"
      ],
      [
        "Ġ",
        "1"
      ],
      [
        "Ġy",
        "et"
      ],
      [
        "ĠF",
        "ran"
      ],
      [
        "b",
        "ably"
      ],
      [
        "Ġto",
        "w"
      ],
      [
        "Ġt",
        "ri"
      ],
      [
        "an",
        "na"
      ],
      [
        "ĠD",
        "e"
      ],
      [
        "Ġcou",
        "nt"
      ],
      [
        "Ġpo",
        "int"
      ],
      [
        "y",
        "e"
      ],
      [
        "Ġto",
        "m"
      ],
      [
        "Ġs",
        "et"
      ],
      [
        "Ġwith",
        "out"
      ],
      [
        "ĠP",
        "lease"
      ],
      [
        "ĠC",
        "l"
      ],
      [
        "Ġmo",
        "st"
      ],
      [
        "ĠO",
        "ne"
      ],
      [
        "Ġday",
        "s"
      ],
      [
        "Ġwee",
        "k"
      ],
      [
        "Ġsch",
        "ool"
      ],
      [
        "ĠM",
        "e"
      ],
      [
        "ĠO",
        "r"
      ],
      [
        "i",
        "ld"
      ],
      [
        "ve",
        "s"
      ],
      [
        "Ġne",
        "xt"
      ],
      [
        "pp",
        "ed"
      ],
      [
        "ra",
        "id"
      ],
      [
        "Ġc",
        "ha"
      ],
      [
        "s",
        "s"
      ],
      [
        "Ġdr",
        "ink"
      ],
      [
        "at",
        "ing"
      ],
      [
        "ĠH",
        "ave"
      ],
      [
        "e",
        "rest"
      ],
      [
        "Ġp",
        "ick"
      ],
      [
        "n",
        "o"
      ],
      [
        "ra",
        "ct"
      ],
      [
        "Ġhu",
        "h"
      ],
      [
        "Ġs",
        "it"
      ],
      [
        "Ġre",
        "st"
      ],
      [
        "ation",
        "s"
      ],
      [
        "Ġtoo",
        "k"
      ],
      [
        "Ġs",
        "leep"
      ],
      [
        "Ġc",
        "h"
      ],
      [
        "ĠT",
        "w"
      ],
      [
        "Ġchi",
        "ld"
      ],
      [
        "l",
        "ess"
      ],
      [
        "Ġex",
        "p"
      ],
      [
        "Ġre",
        "p"
      ],
      [
        "Ġtom",
        "orrow"
      ],
      [
        "ĠD",
        "ad"
      ],
      [
        "Ġcra",
        "zy"
      ],
      [
        "i",
        "red"
      ],
      [
        "ir",
        "d"
      ],
      [
        "w",
        "here"
      ],
      [
        "s",
        "w"
      ],
      [
        "Ġbr",
        "ing"
      ],
      [
        "Ġf",
        "ive"
      ],
      [
        "Ġm",
        "et"
      ],
      [
        "ĠB",
        "r"
      ],
      [
        "Ġfriend",
        "s"
      ],
      [
        "Ġwant",
        "s"
      ],
      [
        "in",
        "s"
      ],
      [
        "Ġw",
        "atch"
      ],
      [
        "Ġal",
        "one"
      ],
      [
        "Ġst",
        "and"
      ],
      [
        "a",
        "h"
      ],
      [
        "re",
        "nt"
      ],
      [
        "ĠJ",
        "es"
      ],
      [
        "ous",
        "and"
      ],
      [
        "u",
        "p"
      ],
      [
        "Ġo",
        "pen"
      ],
      [
        "on",
        "t"
      ],
      [
        "Ġdo",
        "ll"
      ],
      [
        "d",
        "e"
      ],
      [
        "Ġy",
        "eah"
      ],
      [
        "act",
        "ly"
      ],
      [
        "Ġf",
        "ar"
      ],
      [
        "ĠNot",
        "hing"
      ],
      [
        "Ġproble",
        "m"
      ],
      [
        "Ġon",
        "ce"
      ],
      [
        "Ġmin",
        "ute"
      ],
      [
        "nt",
        "il"
      ],
      [
        "Ġmon",
        "th"
      ],
      [
        "Ġwor",
        "ry"
      ],
      [
        "Ġbab",
        "y"
      ],
      [
        "ĠCh",
        "rist"
      ],
      [
        "Ġg",
        "one"
      ],
      [
        "Ġde",
        "c"
      ],
      [
        "it",
        "ion"
      ],
      [
        "Ġaf",
        "raid"
      ],
      [
        "Ġs",
        "ix"
      ],
      [
        "Ġm",
        "om"
      ],
      [
        "iz",
        "e"
      ],
      [
        "or",
        "n"
      ],
      [
        "ow",
        "er"
      ],
      [
        "s",
        "h"
      ],
      [
        "Ġt",
        "en"
      ],
      [
        "Ġc",
        "ase"
      ],
      [
        "Ġl",
        "ate"
      ],
      [
        "ĠL",
        "isten"
      ],
      [
        "ea",
        "k"
      ],
      [
        "Ġint",
        "erest"
      ],
      [
        "u",
        "g"
      ],
      [
        "Ġwon",
        "der"
      ],
      [
        "Ġknow",
        "s"
      ],
      [
        "Ġbr",
        "other"
      ],
      [
        "ĠThan",
        "ks"
      ],
      [
        "y",
        "ou"
      ],
      [
        "Ġs",
        "ince"
      ],
      [
        "a",
        "ut"
      ],
      [
        "it",
        "her"
      ],
      [
        "Ġto",
        "day"
      ],
      [
        "Ġf",
        "ig"
      ],
      [
        "ĠA",
        "t"
      ],
      [
        "ce",
        "pt"
      ],
      [
        "er",
        "y"
      ],
      [
        "Ġsupp",
        "osed"
      ],
      [
        "Ġthink",
        "ing"
      ],
      [
        "Ġcom",
        "m"
      ],
      [
        "or",
        "k"
      ],
      [
        "fe",
        "ct"
      ],
      [
        "as",
        "y"
      ],
      [
        "Ġsu",
        "ch"
      ],
      [
        "Ġh",
        "urt"
      ],
      [
        "Ġg",
        "un"
      ],
      [
        "as",
        "h"
      ],
      [
        "ut",
        "es"
      ],
      [
        "ot",
        "t"
      ],
      [
        "Ġth",
        "ousand"
      ],
      [
        "ĠJ",
        "ack"
      ],
      [
        "Ġany",
        "one"
      ],
      [
        "Ġt",
        "er"
      ],
      [
        "Ġb",
        "ook"
      ],
      [
        "Ġf",
        "our"
      ],
      [
        "y",
        "ing"
      ],
      [
        "re",
        "w"
      ],
      [
        "ve",
        "l"
      ],
      [
        "Ġwhi",
        "ch"
      ],
      [
        "n",
        "ess"
      ],
      [
        "Ġd",
        "ie"
      ],
      [
        "c",
        "es"
      ],
      [
        "Ġhop",
        "e"
      ],
      [
        "ĠM",
        "ar"
      ],
      [
        "Ġu",
        "h"
      ],
      [
        "Ġb",
        "reak"
      ],
      [
        "en",
        "s"
      ],
      [
        "ĠJes",
        "us"
      ],
      [
        "si",
        "ble"
      ],
      [
        "ĠS",
        "ee"
      ],
      [
        "ĠM",
        "iss"
      ],
      [
        "Ġ",
        "ri"
      ],
      [
        "u",
        "se"
      ],
      [
        "Ġha",
        "lf"
      ],
      [
        "Ġsec",
        "ond"
      ],
      [
        "a",
        "z"
      ],
      [
        "ĠS",
        "omet"
      ],
      [
        "um",
        "p"
      ],
      [
        "Ġst",
        "ory"
      ],
      [
        "Ġsh",
        "ot"
      ],
      [
        "Ġh",
        "old"
      ],
      [
        "Ġs",
        "ound"
      ],
      [
        "Ġin",
        "v"
      ],
      [
        "a",
        "red"
      ],
      [
        "Ġt",
        "rou"
      ],
      [
        "Ġp",
        "ri"
      ],
      [
        "Ġpro",
        "bably"
      ],
      [
        "Ġmin",
        "utes"
      ],
      [
        "Ġche",
        "ck"
      ],
      [
        "Ġe",
        "m"
      ],
      [
        "c",
        "y"
      ],
      [
        "ĠMr",
        "s"
      ],
      [
        "Ġw",
        "anna"
      ],
      [
        "Ġc",
        "op"
      ],
      [
        "ing",
        "s"
      ],
      [
        "au",
        "l"
      ],
      [
        "ĠD",
        "r"
      ],
      [
        "Ġm",
        "akes"
      ],
      [
        "ĠHe",
        "re"
      ],
      [
        "Ġbe",
        "aut"
      ],
      [
        "i",
        "le"
      ],
      [
        "Ġh",
        "it"
      ],
      [
        "Ġf",
        "ace"
      ],
      [
        "Ġu",
        "ntil"
      ],
      [
        "Ġquest",
        "ion"
      ],
      [
        "u",
        "al"
      ],
      [
        "Ġp",
        "rom"
      ],
      [
        "ĠC",
        "om"
      ],
      [
        "Ġmar",
        "ried"
      ],
      [
        "Ġfam",
        "ily"
      ],
      [
        "Ġwork",
        "ing"
      ],
      [
        "Ġf",
        "ight"
      ],
      [
        "ĠW",
        "ould"
      ],
      [
        "ĠH",
        "ar"
      ],
      [
        "Ġtr",
        "ue"
      ],
      [
        "ĠN",
        "ew"
      ],
      [
        "an",
        "k"
      ],
      [
        "Ġtow",
        "n"
      ],
      [
        "Ġso",
        "on"
      ],
      [
        "Ġsome",
        "body"
      ],
      [
        "Ġt",
        "e"
      ],
      [
        "Ġh",
        "ot"
      ],
      [
        "Ġcom",
        "pl"
      ],
      [
        "er",
        "tain"
      ],
      [
        "if",
        "ul"
      ],
      [
        "ou",
        "nt"
      ],
      [
        "Ġg",
        "ave"
      ],
      [
        "m",
        "ore"
      ],
      [
        "Ġw",
        "h"
      ],
      [
        "an",
        "g"
      ],
      [
        "ĠS",
        "e"
      ],
      [
        "Ġb",
        "ed"
      ],
      [
        "Ġyou",
        "ng"
      ],
      [
        "m",
        "ed"
      ],
      [
        "un",
        "ch"
      ],
      [
        "i",
        "al"
      ],
      [
        "Ġa",
        "p"
      ],
      [
        "Ġe",
        "at"
      ],
      [
        "Ġlo",
        "st"
      ],
      [
        "n",
        "ed"
      ],
      [
        "Ġdiffe",
        "rent"
      ],
      [
        "he",
        "ad"
      ],
      [
        "Ġlea",
        "st"
      ],
      [
        "Ġkid",
        "s"
      ],
      [
        "ĠA",
        "b"
      ],
      [
        "Ġask",
        "ed"
      ],
      [
        "Ġmo",
        "ve"
      ],
      [
        "c",
        "l"
      ],
      [
        "m",
        "e"
      ],
      [
        "y",
        "es"
      ],
      [
        "Ġj",
        "o"
      ],
      [
        "Ġ",
        "?"
      ],
      [
        "ir",
        "ty"
      ],
      [
        "Ġd",
        "amn"
      ],
      [
        "Ġc",
        "ut"
      ],
      [
        "Ġhe",
        "art"
      ],
      [
        "ĠS",
        "p"
      ],
      [
        "a",
        "id"
      ],
      [
        "0",
        "0"
      ],
      [
        "s",
        "y"
      ],
      [
        "Ġdo",
        "or"
      ],
      [
        "Ġimp",
        "ort"
      ],
      [
        "Ġl",
        "aw"
      ],
      [
        "ĠU",
        "n"
      ],
      [
        "Ġre",
        "sp"
      ],
      [
        "Ġp",
        "ass"
      ],
      [
        "Ġget",
        "s"
      ],
      [
        "Ġre",
        "l"
      ],
      [
        "ent",
        "s"
      ],
      [
        "ĠW",
        "ait"
      ],
      [
        "ci",
        "al"
      ],
      [
        "Ġre",
        "ason"
      ],
      [
        "Ġtrou",
        "ble"
      ],
      [
        "i",
        "er"
      ],
      [
        "s",
        "o"
      ],
      [
        "Ġhat",
        "e"
      ],
      [
        "Ġan",
        "sw"
      ],
      [
        "oll",
        "ow"
      ],
      [
        "Ġph",
        "one"
      ],
      [
        "Ġex",
        "actly"
      ],
      [
        "t",
        "he"
      ],
      [
        "Ġha",
        "ving"
      ],
      [
        "Ġl",
        "uck"
      ],
      [
        "Ġtw",
        "enty"
      ],
      [
        "ĠA",
        "r"
      ],
      [
        "Ġe",
        "v"
      ],
      [
        "Ġd",
        "ream"
      ],
      [
        "s",
        "on"
      ],
      [
        "am",
        "es"
      ],
      [
        "Ġany",
        "way"
      ],
      [
        "ĠT",
        "ake"
      ],
      [
        "ĠL",
        "e"
      ],
      [
        "ĠB",
        "l"
      ],
      [
        "Ġn",
        "um"
      ],
      [
        "Ġpol",
        "ice"
      ],
      [
        "Ġa",
        "w"
      ],
      [
        "Ġm",
        "ill"
      ],
      [
        "Ġf",
        "act"
      ],
      [
        "Ġare",
        "n"
      ],
      [
        "Ġe",
        "ach"
      ],
      [
        "Ġex",
        "pl"
      ],
      [
        "Ġfuck",
        "in"
      ],
      [
        "Ġt",
        "imes"
      ],
      [
        "re",
        "et"
      ],
      [
        "ĠW",
        "ith"
      ],
      [
        "Ġf",
        "if"
      ],
      [
        "Ġsp",
        "e"
      ],
      [
        "Ġo",
        "b"
      ],
      [
        "Ġany",
        "more"
      ],
      [
        "ĠHell",
        "o"
      ],
      [
        "i",
        "o"
      ],
      [
        "Ġw",
        "ish"
      ],
      [
        "Ġ",
        "ent"
      ],
      [
        "ĠW",
        "as"
      ],
      [
        "p",
        "r"
      ],
      [
        "Ġc",
        "ho"
      ],
      [
        "ent",
        "ion"
      ],
      [
        "un",
        "k"
      ],
      [
        "Ġdoll",
        "ars"
      ],
      [
        "Ġtr",
        "ust"
      ],
      [
        "Ġimport",
        "ant"
      ],
      [
        "Ġhapp",
        "y"
      ],
      [
        "Ġb",
        "oth"
      ],
      [
        "Ġchan",
        "ce"
      ],
      [
        "Ġchan",
        "ge"
      ],
      [
        "g",
        "ed"
      ],
      [
        "ĠT",
        "om"
      ],
      [
        "Ġs",
        "ign"
      ],
      [
        "Ġin",
        "s"
      ],
      [
        "out",
        "h"
      ],
      [
        "p",
        "h"
      ],
      [
        "Ġh",
        "um"
      ],
      [
        "ĠRe",
        "ally"
      ],
      [
        "Ġg",
        "i"
      ],
      [
        "it",
        "s"
      ],
      [
        "Ġhour",
        "s"
      ],
      [
        "Ġfor",
        "get"
      ],
      [
        "ul",
        "t"
      ],
      [
        "v",
        "ie"
      ],
      [
        "Ġser",
        "ious"
      ],
      [
        "Ġin",
        "f"
      ],
      [
        "Ġtell",
        "ing"
      ],
      [
        "c",
        "c"
      ],
      [
        "Ġcou",
        "ple"
      ],
      [
        "Ġexp",
        "ect"
      ],
      [
        "i",
        "et"
      ],
      [
        "Ġm",
        "aking"
      ],
      [
        "Ġcom",
        "es"
      ],
      [
        "Ġbeaut",
        "iful"
      ],
      [
        "ĠFran",
        "k"
      ],
      [
        "c",
        "ed"
      ],
      [
        "Ġany",
        "body"
      ],
      [
        "Ġs",
        "k"
      ],
      [
        "Ġt",
        "aking"
      ],
      [
        "ict",
        "ure"
      ],
      [
        "Ġcl",
        "ose"
      ],
      [
        "Ġf",
        "r"
      ],
      [
        "Ġbe",
        "g"
      ],
      [
        "ĠS",
        "orry"
      ],
      [
        "d",
        "ing"
      ],
      [
        "Ġd",
        "ro"
      ],
      [
        "ĠM",
        "a"
      ],
      [
        "o",
        "ve"
      ],
      [
        "Ġm",
        "ine"
      ],
      [
        "ĠF",
        "uck"
      ],
      [
        "ĠH",
        "i"
      ],
      [
        "l",
        "and"
      ],
      [
        "Ġtr",
        "uth"
      ],
      [
        "Ġli",
        "ght"
      ],
      [
        "ĠC",
        "har"
      ],
      [
        "Ġh",
        "igh"
      ],
      [
        "c",
        "he"
      ],
      [
        "Ġl",
        "ear"
      ],
      [
        "Ġre",
        "ady"
      ],
      [
        "c",
        "er"
      ],
      [
        "ĠN",
        "e"
      ],
      [
        "Ġyour",
        "s"
      ],
      [
        "is",
        "on"
      ],
      [
        "ĠDo",
        "es"
      ],
      [
        "et",
        "e"
      ],
      [
        "c",
        "ome"
      ],
      [
        "o",
        "le"
      ],
      [
        "Ġs",
        "ide"
      ],
      [
        "Ġp",
        "ull"
      ],
      [
        "at",
        "es"
      ],
      [
        "Ġcon",
        "f"
      ],
      [
        "ro",
        "ss"
      ],
      [
        "Ġb",
        "ro"
      ],
      [
        "Ġgo",
        "es"
      ],
      [
        "Ġbl",
        "ood"
      ],
      [
        "Ġb",
        "ra"
      ],
      [
        "Ġs",
        "end"
      ],
      [
        "--",
        "--"
      ],
      [
        "a",
        "pp"
      ],
      [
        "Ġsho",
        "ot"
      ],
      [
        "Ġqu",
        "ite"
      ],
      [
        "ĠS",
        "c"
      ],
      [
        "Ġe",
        "asy"
      ],
      [
        "ĠC",
        "ap"
      ],
      [
        "Ġl",
        "ater"
      ],
      [
        "Ġp",
        "icture"
      ],
      [
        "Ġbu",
        "y"
      ],
      [
        "Ġb",
        "ody"
      ],
      [
        "Ġe",
        "yes"
      ],
      [
        "Ġde",
        "ath"
      ],
      [
        "Ġm",
        "ur"
      ],
      [
        "Ġt",
        "ried"
      ],
      [
        "Ġf",
        "ollow"
      ],
      [
        "Ġh",
        "on"
      ],
      [
        "Ġlook",
        "s"
      ],
      [
        "er",
        "al"
      ],
      [
        "ĠG",
        "e"
      ],
      [
        "ard",
        "s"
      ],
      [
        "d",
        "u"
      ],
      [
        "an",
        "e"
      ],
      [
        "n",
        "ow"
      ],
      [
        "l",
        "ed"
      ],
      [
        "Ġde",
        "p"
      ],
      [
        "Ġt",
        "ou"
      ],
      [
        "Ġm",
        "ess"
      ],
      [
        "Ġin",
        "st"
      ],
      [
        "at",
        "t"
      ],
      [
        "h",
        "h"
      ],
      [
        "Ġdis",
        "c"
      ],
      [
        "h",
        "in"
      ],
      [
        "Ġs",
        "ick"
      ],
      [
        "Ġc",
        "har"
      ],
      [
        "Ġs",
        "ort"
      ],
      [
        "Ġmean",
        "s"
      ],
      [
        "Ġre",
        "s"
      ],
      [
        "Ġdo",
        "ctor"
      ],
      [
        "'",
        "."
      ],
      [
        "ĠS",
        "u"
      ],
      [
        "ud",
        "e"
      ],
      [
        "Ġhand",
        "s"
      ],
      [
        "O",
        "U"
      ],
      [
        "b",
        "and"
      ],
      [
        "Ġagain",
        "st"
      ],
      [
        "m",
        "ost"
      ],
      [
        "l",
        "ing"
      ],
      [
        "mer",
        "ic"
      ],
      [
        "am",
        "p"
      ],
      [
        "Ġb",
        "ull"
      ],
      [
        "ct",
        "ion"
      ],
      [
        "Ġ",
        "Q"
      ],
      [
        "Ġs",
        "ent"
      ],
      [
        "Ġf",
        "ell"
      ],
      [
        "Ġa",
        "ir"
      ],
      [
        "Ġc",
        "or"
      ],
      [
        "Ġf",
        "ire"
      ],
      [
        "Ġse",
        "x"
      ],
      [
        "Ġcount",
        "ry"
      ],
      [
        "Ġw",
        "ater"
      ],
      [
        "Ġd",
        "an"
      ],
      [
        "ĠM",
        "om"
      ],
      [
        "i",
        "ent"
      ],
      [
        "j",
        "ect"
      ],
      [
        "k",
        "es"
      ],
      [
        "it",
        "ch"
      ],
      [
        "Ġth",
        "ough"
      ],
      [
        "ĠH",
        "is"
      ],
      [
        "us",
        "band"
      ],
      [
        "ĠM",
        "an"
      ],
      [
        "Ġthan",
        "k"
      ],
      [
        "p",
        "id"
      ],
      [
        "in",
        "ner"
      ],
      [
        "al",
        "s"
      ],
      [
        "un",
        "g"
      ],
      [
        "ver",
        "s"
      ],
      [
        "c",
        "ent"
      ],
      [
        "il",
        "es"
      ],
      [
        "Ġg",
        "ame"
      ],
      [
        "Ġp",
        "ie"
      ],
      [
        "Ġgo",
        "dd"
      ],
      [
        "t",
        "on"
      ],
      [
        "Ġs",
        "y"
      ],
      [
        "Ġin",
        "side"
      ],
      [
        "Ġsp",
        "eak"
      ],
      [
        "Ġsh",
        "ip"
      ],
      [
        "ol",
        "og"
      ],
      [
        "Ġf",
        "ree"
      ],
      [
        "Ġmill",
        "ion"
      ],
      [
        "Ġp",
        "ower"
      ],
      [
        "ĠA",
        "f"
      ],
      [
        "Ġst",
        "ra"
      ],
      [
        "ĠJ",
        "e"
      ],
      [
        "art",
        "ment"
      ],
      [
        "l",
        "ic"
      ],
      [
        "Ġ",
        "ï¿½"
      ],
      [
        "Ġdo",
        "g"
      ],
      [
        "ĠB",
        "et"
      ],
      [
        "Ġal",
        "ong"
      ],
      [
        "ĠTw",
        "o"
      ],
      [
        "Ġmonth",
        "s"
      ],
      [
        "Ġs",
        "im"
      ],
      [
        "ar",
        "ly"
      ],
      [
        "Ġe",
        "ight"
      ],
      [
        "Ġf",
        "ull"
      ],
      [
        "are",
        "nt"
      ],
      [
        "c",
        "use"
      ],
      [
        "le",
        "y"
      ],
      [
        "ĠA",
        "meric"
      ],
      [
        "Ġh",
        "usband"
      ],
      [
        "se",
        "l"
      ],
      [
        "Ġp",
        "ap"
      ],
      [
        "Ġre",
        "t"
      ],
      [
        "w",
        "een"
      ],
      [
        "ĠB",
        "ill"
      ],
      [
        "h",
        "ind"
      ],
      [
        "ĠĠĠĠĠĠĠĠ",
        "ĠĠĠĠĠĠĠĠ"
      ],
      [
        "id",
        "d"
      ],
      [
        "sh",
        "it"
      ],
      [
        "un",
        "t"
      ],
      [
        "ĠA",
        "m"
      ],
      [
        "ĠG",
        "r"
      ],
      [
        "Ġd",
        "ied"
      ],
      [
        "Ġc",
        "ertain"
      ],
      [
        "Ġin",
        "ter"
      ],
      [
        "ĠJ",
        "im"
      ],
      [
        "Ġwait",
        "ing"
      ],
      [
        "n",
        "ot"
      ],
      [
        "Ġ",
        "Z"
      ],
      [
        "Ġsupp",
        "ose"
      ],
      [
        "Ġfig",
        "ure"
      ],
      [
        "id",
        "es"
      ],
      [
        "Ġansw",
        "er"
      ],
      [
        "ĠP",
        "ro"
      ],
      [
        "u",
        "red"
      ],
      [
        "or",
        "ge"
      ],
      [
        "b",
        "b"
      ],
      [
        "et",
        "s"
      ],
      [
        "Ġact",
        "ually"
      ],
      [
        "Ġstu",
        "pid"
      ],
      [
        "Ġe",
        "ither"
      ],
      [
        "Ġd",
        "ad"
      ],
      [
        "is",
        "ed"
      ],
      [
        "Ġoff",
        "ice"
      ],
      [
        "Ġevery",
        "body"
      ],
      [
        "Ġpart",
        "y"
      ],
      [
        "t",
        "een"
      ],
      [
        "um",
        "b"
      ],
      [
        "Ġfun",
        "ny"
      ],
      [
        "it",
        "al"
      ],
      [
        "Ġco",
        "ll"
      ],
      [
        "l",
        "er"
      ],
      [
        "ĠH",
        "uh"
      ],
      [
        "Ġp",
        "res"
      ],
      [
        "Ġnum",
        "ber"
      ],
      [
        "Ġst",
        "r"
      ],
      [
        "at",
        "or"
      ],
      [
        "Ġfor",
        "g"
      ],
      [
        "an",
        "y"
      ],
      [
        "Ġhim",
        "self"
      ],
      [
        "Ġf",
        "av"
      ],
      [
        "ak",
        "en"
      ],
      [
        "Ġw",
        "ind"
      ],
      [
        "Ġ",
        "*"
      ],
      [
        "in",
        "es"
      ],
      [
        "ĠN",
        "ever"
      ],
      [
        "c",
        "hed"
      ],
      [
        "Ġbe",
        "hind"
      ],
      [
        "Ġwe",
        "ar"
      ],
      [
        "Ġal",
        "ive"
      ],
      [
        "Ġwom",
        "en"
      ],
      [
        "o",
        "ke"
      ],
      [
        "Ġstart",
        "ed"
      ],
      [
        "Ġs",
        "ense"
      ],
      [
        "Ġle",
        "g"
      ],
      [
        "c",
        "le"
      ],
      [
        "Ġm",
        "a"
      ],
      [
        "er",
        "v"
      ],
      [
        "os",
        "s"
      ],
      [
        "Ġrec",
        "ord"
      ],
      [
        "ĠG",
        "ot"
      ],
      [
        "Ġsee",
        "m"
      ],
      [
        "ĠT",
        "H"
      ],
      [
        "on",
        "y"
      ],
      [
        "ĠCap",
        "tain"
      ],
      [
        "Ġe",
        "le"
      ],
      [
        "ie",
        "ld"
      ],
      [
        "Ġ",
        "2"
      ],
      [
        "Ġd",
        "et"
      ],
      [
        "ĠG",
        "ive"
      ],
      [
        "ĠB",
        "ob"
      ],
      [
        "Ġsu",
        "b"
      ],
      [
        "er",
        "t"
      ],
      [
        "Ġbet",
        "ween"
      ],
      [
        "Ġsec",
        "ret"
      ],
      [
        "st",
        "er"
      ],
      [
        "ĠS",
        "ir"
      ],
      [
        "Ġf",
        "all"
      ],
      [
        "Ġrun",
        "ning"
      ],
      [
        "Ġb",
        "ar"
      ],
      [
        "Ġl",
        "ine"
      ],
      [
        "ot",
        "e"
      ],
      [
        "Ġf",
        "ast"
      ],
      [
        "ĠM",
        "ay"
      ],
      [
        "aught",
        "er"
      ],
      [
        "ĠB",
        "ar"
      ],
      [
        "Ġli",
        "ving"
      ],
      [
        "Ġt",
        "ea"
      ],
      [
        "ĠNo",
        "body"
      ],
      [
        "Ġex",
        "per"
      ],
      [
        "Ġcon",
        "s"
      ],
      [
        "Ġab",
        "le"
      ],
      [
        "E",
        "R"
      ],
      [
        "ĠC",
        "ould"
      ],
      [
        "at",
        "ive"
      ],
      [
        "Ġre",
        "g"
      ],
      [
        "ha",
        "ps"
      ],
      [
        "ĠW",
        "hi"
      ],
      [
        "Ġp",
        "ain"
      ],
      [
        "Ġsc",
        "ared"
      ],
      [
        "ĠP",
        "er"
      ],
      [
        "Ġgodd",
        "amn"
      ],
      [
        "Ġd",
        "ra"
      ],
      [
        "Ġh",
        "oney"
      ],
      [
        "ĠS",
        "ay"
      ],
      [
        "ĠA",
        "h"
      ],
      [
        "ĠH",
        "er"
      ],
      [
        "Ġno",
        "body"
      ],
      [
        "Ġde",
        "f"
      ],
      [
        "Ġsa",
        "fe"
      ],
      [
        "ran",
        "ge"
      ],
      [
        "t",
        "e"
      ],
      [
        "ĠGe",
        "orge"
      ],
      [
        "Ġr",
        "id"
      ],
      [
        "i",
        "ence"
      ],
      [
        "Ġs",
        "ing"
      ],
      [
        "ĠB",
        "en"
      ],
      [
        "Ġshould",
        "n"
      ],
      [
        "ter",
        "s"
      ],
      [
        "Ġter",
        "ri"
      ],
      [
        "is",
        "hed"
      ],
      [
        "Ġa",
        "head"
      ],
      [
        "Ġsh",
        "ut"
      ],
      [
        "hi",
        "p"
      ],
      [
        "Ġmom",
        "ent"
      ],
      [
        "Ġm",
        "us"
      ],
      [
        "Ġsw",
        "eet"
      ],
      [
        "it",
        "ed"
      ],
      [
        "ĠE",
        "l"
      ],
      [
        "Ġhappen",
        "s"
      ],
      [
        "in",
        "ed"
      ],
      [
        "rou",
        "ght"
      ],
      [
        "Ġd",
        "inner"
      ],
      [
        "t",
        "o"
      ],
      [
        "os",
        "p"
      ],
      [
        "ck",
        "s"
      ],
      [
        "ĠSomet",
        "hing"
      ],
      [
        "ren",
        "ce"
      ],
      [
        "Ġst",
        "ud"
      ],
      [
        "Ġbl",
        "ack"
      ],
      [
        "Ġha",
        "ir"
      ],
      [
        "at",
        "s"
      ],
      [
        "ĠS",
        "am"
      ],
      [
        "Ġha",
        "ng"
      ],
      [
        "Ġle",
        "ad"
      ],
      [
        "ĠAb",
        "out"
      ],
      [
        "Ġal",
        "most"
      ],
      [
        "Ġfeel",
        "ing"
      ],
      [
        "Ġevery",
        "one"
      ],
      [
        "Ġnew",
        "s"
      ],
      [
        "Ġcle",
        "an"
      ],
      [
        "Ġdri",
        "ve"
      ],
      [
        "ĠG",
        "u"
      ],
      [
        "ro",
        "l"
      ],
      [
        "e",
        "al"
      ],
      [
        "ĠV",
        "ery"
      ],
      [
        "Ġbu",
        "ild"
      ],
      [
        "Ġfr",
        "ont"
      ],
      [
        "Ġt",
        "est"
      ],
      [
        "Ġwor",
        "th"
      ],
      [
        "Ġg",
        "ra"
      ],
      [
        "Ġp",
        "at"
      ],
      [
        "r",
        "am"
      ],
      [
        "itt",
        "ing"
      ],
      [
        "Ġask",
        "ing"
      ],
      [
        "Ġad",
        "v"
      ],
      [
        "ĠOn",
        "ly"
      ],
      [
        "Ġme",
        "m"
      ],
      [
        "Ġh",
        "or"
      ],
      [
        "Ġb",
        "rought"
      ],
      [
        "Ġst",
        "reet"
      ],
      [
        "Ġchild",
        "ren"
      ],
      [
        "ĠY",
        "ork"
      ],
      [
        "t",
        "en"
      ],
      [
        "k",
        "ed"
      ],
      [
        "Ġwr",
        "ite"
      ],
      [
        "Ġs",
        "ister"
      ],
      [
        "Ġd",
        "ou"
      ],
      [
        "Ġwee",
        "ks"
      ],
      [
        "ri",
        "c"
      ],
      [
        "le",
        "as"
      ],
      [
        "Ġg",
        "en"
      ],
      [
        "Ġfav",
        "or"
      ],
      [
        "Ġw",
        "in"
      ],
      [
        "Ġal",
        "so"
      ],
      [
        "Ġtou",
        "ch"
      ],
      [
        "Ġstra",
        "ight"
      ],
      [
        "ĠF",
        "ine"
      ],
      [
        "c",
        "ess"
      ],
      [
        "ĠAf",
        "ter"
      ],
      [
        "Ġm",
        "ist"
      ],
      [
        "Ġli",
        "e"
      ],
      [
        "Ġwhat",
        "ever"
      ],
      [
        "Ġwere",
        "n"
      ],
      [
        "Ġb",
        "all"
      ],
      [
        "ĠY",
        "OU"
      ],
      [
        "Ġlo",
        "se"
      ],
      [
        "b",
        "y"
      ],
      [
        "m",
        "it"
      ],
      [
        "Ġper",
        "fect"
      ],
      [
        "at",
        "ur"
      ],
      [
        "Ġout",
        "side"
      ],
      [
        "Ġv",
        "is"
      ],
      [
        "Ġf",
        "ool"
      ],
      [
        "Ġl",
        "ess"
      ],
      [
        "c",
        "o"
      ],
      [
        "il",
        "ity"
      ],
      [
        "ĠE",
        "ng"
      ],
      [
        "ic",
        "s"
      ],
      [
        "ĠP",
        "res"
      ],
      [
        "Ġex",
        "t"
      ],
      [
        "ne",
        "y"
      ],
      [
        "Ġin",
        "c"
      ],
      [
        "Ġcl",
        "ass"
      ],
      [
        "Ġm",
        "ad"
      ],
      [
        "en",
        "e"
      ],
      [
        "om",
        "b"
      ],
      [
        "k",
        "ing"
      ],
      [
        "Ġd",
        "ist"
      ],
      [
        "Ġboy",
        "s"
      ],
      [
        "ro",
        "om"
      ],
      [
        "Ġar",
        "t"
      ],
      [
        ".",
        "'"
      ],
      [
        "ĠA",
        "d"
      ],
      [
        "Ġs",
        "ell"
      ],
      [
        "I",
        "N"
      ],
      [
        "a",
        "le"
      ],
      [
        "Ġhum",
        "an"
      ],
      [
        "v",
        "in"
      ],
      [
        "Ġd",
        "aughter"
      ],
      [
        "ĠQ",
        "u"
      ],
      [
        "o",
        "ot"
      ],
      [
        "s",
        "ol"
      ],
      [
        "Ġit",
        "s"
      ],
      [
        "Ġgirl",
        "s"
      ],
      [
        ">",
        "."
      ],
      [
        "Ġlive",
        "s"
      ],
      [
        "Ġt",
        "aken"
      ],
      [
        "us",
        "h"
      ],
      [
        "Ġde",
        "ar"
      ],
      [
        "m",
        "p"
      ],
      [
        "Ġsm",
        "all"
      ],
      [
        "Ġc",
        "ap"
      ],
      [
        "ĠWhi",
        "ch"
      ],
      [
        "ĠM",
        "ary"
      ],
      [
        "Ġpos",
        "sible"
      ],
      [
        "ic",
        "ally"
      ],
      [
        "Ġgl",
        "ad"
      ],
      [
        "u",
        "ff"
      ],
      [
        "ĠP",
        "l"
      ],
      [
        "Ġsur",
        "pr"
      ],
      [
        "Ġsee",
        "ms"
      ],
      [
        "Ġmo",
        "vie"
      ],
      [
        "ĠSt",
        "op"
      ],
      [
        "ound",
        "s"
      ],
      [
        "Ġre",
        "f"
      ],
      [
        "sy",
        "ch"
      ],
      [
        "ck",
        "ed"
      ],
      [
        "ĉ",
        "ĉ"
      ],
      [
        "ic",
        "ul"
      ],
      [
        "ud",
        "dy"
      ],
      [
        "Ġl",
        "ady"
      ],
      [
        "Ġp",
        "ast"
      ],
      [
        "Ġfif",
        "ty"
      ],
      [
        "o",
        "or"
      ],
      [
        "Ġexpl",
        "ain"
      ],
      [
        "?",
        "\""
      ],
      [
        "si",
        "b"
      ],
      [
        "Ġt",
        "ap"
      ],
      [
        "Ġde",
        "l"
      ],
      [
        "Ġthan",
        "ks"
      ],
      [
        "t",
        "s"
      ],
      [
        "Ġpr",
        "ot"
      ],
      [
        "Ġdan",
        "ger"
      ],
      [
        "am",
        "a"
      ],
      [
        "Ġd",
        "est"
      ],
      [
        "Ġl",
        "au"
      ],
      [
        "Ġrep",
        "ort"
      ],
      [
        "ve",
        "st"
      ],
      [
        "Ġgr",
        "and"
      ],
      [
        "w",
        "ard"
      ],
      [
        "Ġbe",
        "l"
      ],
      [
        "ĠE",
        "d"
      ],
      [
        "ĠT",
        "r"
      ],
      [
        "i",
        "b"
      ],
      [
        "ĠC",
        "on"
      ],
      [
        "ĠR",
        "em"
      ],
      [
        "Ġth",
        "row"
      ],
      [
        "f",
        "ort"
      ],
      [
        "o",
        "c"
      ],
      [
        "z",
        "e"
      ],
      [
        "Ġcompl",
        "ete"
      ],
      [
        "it",
        "ing"
      ],
      [
        "Ġp",
        "arent"
      ],
      [
        "Ġal",
        "right"
      ],
      [
        "Ġsome",
        "where"
      ],
      [
        "Ġco",
        "ld"
      ],
      [
        "Ġd",
        "ress"
      ],
      [
        "Ġb",
        "uck"
      ],
      [
        "Ġthink",
        "s"
      ],
      [
        "aul",
        "t"
      ],
      [
        "a",
        "ld"
      ],
      [
        "n",
        "ie"
      ],
      [
        "Ġr",
        "ad"
      ],
      [
        "Ġneed",
        "s"
      ],
      [
        "at",
        "ure"
      ],
      [
        "ĠG",
        "reat"
      ],
      [
        "us",
        "s"
      ],
      [
        "Ġt",
        "ill"
      ],
      [
        "Ġt",
        "ired"
      ],
      [
        "et",
        "er"
      ],
      [
        "ie",
        "f"
      ],
      [
        "osp",
        "ital"
      ],
      [
        "Ġinf",
        "orm"
      ],
      [
        "Ġword",
        "s"
      ],
      [
        "ĠHar",
        "ry"
      ],
      [
        "Ġbe",
        "at"
      ],
      [
        "Ġgo",
        "in"
      ],
      [
        "Ġa",
        "dd"
      ],
      [
        "Ġlear",
        "n"
      ],
      [
        "Ġpie",
        "ce"
      ],
      [
        "ĠPres",
        "ident"
      ],
      [
        "Ġm",
        "outh"
      ],
      [
        "air",
        "s"
      ],
      [
        "c",
        "hes"
      ],
      [
        "Ġc",
        "atch"
      ],
      [
        "Ġor",
        "der"
      ],
      [
        "Ġacc",
        "ident"
      ],
      [
        "pp",
        "ing"
      ],
      [
        "ĠD",
        "an"
      ],
      [
        "ĠW",
        "h"
      ],
      [
        "id",
        "er"
      ],
      [
        "Ġlook",
        "ed"
      ],
      [
        "ĠThe",
        "se"
      ],
      [
        "Ġknow",
        "n"
      ],
      [
        "Ġoff",
        "ic"
      ],
      [
        "Ġf",
        "ood"
      ],
      [
        "Ġk",
        "ey"
      ],
      [
        "art",
        "h"
      ],
      [
        "Ġr",
        "ather"
      ],
      [
        "re",
        "en"
      ],
      [
        "Ġim",
        "ag"
      ],
      [
        "g",
        "o"
      ],
      [
        "ĠE",
        "ven"
      ],
      [
        "Ġf",
        "il"
      ],
      [
        "Ġr",
        "an"
      ],
      [
        "ast",
        "er"
      ],
      [
        "Ġc",
        "ol"
      ],
      [
        "Ġf",
        "ore"
      ],
      [
        "i",
        "or"
      ],
      [
        "ĠSh",
        "ut"
      ],
      [
        "Ġ",
        "es"
      ],
      [
        "ĠA",
        "g"
      ],
      [
        "ut",
        "s"
      ],
      [
        "ou",
        "l"
      ],
      [
        "ow",
        "s"
      ],
      [
        "el",
        "t"
      ],
      [
        "sol",
        "ute"
      ],
      [
        "Ġlea",
        "ving"
      ],
      [
        "ep",
        "t"
      ],
      [
        "i",
        "am"
      ],
      [
        "ĠC",
        "he"
      ],
      [
        "Ġkid",
        "ding"
      ],
      [
        "Ġl",
        "and"
      ],
      [
        "Ġwh",
        "ite"
      ],
      [
        "Ġm",
        "ed"
      ],
      [
        "Ġd",
        "ark"
      ],
      [
        "ĠS",
        "w"
      ],
      [
        "Ġwork",
        "ed"
      ],
      [
        "f",
        "ic"
      ],
      [
        "st",
        "em"
      ],
      [
        "e",
        "g"
      ],
      [
        "Ġp",
        "sych"
      ],
      [
        "Ġth",
        "irty"
      ],
      [
        "ĠO",
        "ur"
      ],
      [
        "Ġtra",
        "in"
      ],
      [
        "Ġcle",
        "ar"
      ],
      [
        "Ġspe",
        "cial"
      ],
      [
        "ĠL",
        "ou"
      ],
      [
        "Ġwork",
        "s"
      ],
      [
        "Ġquest",
        "ions"
      ],
      [
        "sel",
        "ves"
      ],
      [
        "Ġparent",
        "s"
      ],
      [
        "ry",
        "ing"
      ],
      [
        "ess",
        "ion"
      ],
      [
        "ĠSh",
        "it"
      ],
      [
        "Ġf",
        "ix"
      ],
      [
        "Ġsa",
        "ve"
      ],
      [
        "ĠDid",
        "n"
      ],
      [
        "oo",
        "se"
      ],
      [
        "?",
        "..."
      ],
      [
        "ĠF",
        "rom"
      ],
      [
        "Ġr",
        "u"
      ],
      [
        "Ġprom",
        "ise"
      ],
      [
        "Ġ",
        "ought"
      ],
      [
        "ff",
        "ee"
      ],
      [
        "Ġp",
        "ub"
      ],
      [
        "Ġinterest",
        "ed"
      ],
      [
        "en",
        "cy"
      ],
      [
        "Ġcall",
        "ing"
      ],
      [
        "on",
        "es"
      ],
      [
        "Ġd",
        "ire"
      ],
      [
        "ĠM",
        "ic"
      ],
      [
        "ĠDo",
        "ctor"
      ],
      [
        "Ġcomp",
        "any"
      ],
      [
        "Ġwonder",
        "ful"
      ],
      [
        "ĠCom",
        "m"
      ],
      [
        "?",
        "?"
      ],
      [
        "ĠF",
        "irst"
      ],
      [
        "t",
        "her"
      ],
      [
        "id",
        "ence"
      ],
      [
        "ĠM",
        "art"
      ],
      [
        "Ġcont",
        "rol"
      ],
      [
        "Ġc",
        "ool"
      ],
      [
        "iz",
        "ed"
      ],
      [
        "Ġdis",
        "app"
      ],
      [
        "Ġbit",
        "ch"
      ],
      [
        "ĠEvery",
        "thing"
      ],
      [
        "ĠW",
        "al"
      ],
      [
        "c",
        "her"
      ],
      [
        "z",
        "z"
      ],
      [
        "Ġm",
        "ag"
      ],
      [
        "is",
        "ion"
      ],
      [
        "ĠS",
        "m"
      ],
      [
        "ĠD",
        "av"
      ],
      [
        "ate",
        "ly"
      ],
      [
        "Ġprot",
        "ect"
      ],
      [
        "'",
        "?"
      ],
      [
        "Ġs",
        "qu"
      ],
      [
        "l",
        "o"
      ],
      [
        "Ġs",
        "n"
      ],
      [
        "ĠM",
        "ax"
      ],
      [
        "ĠC",
        "ar"
      ],
      [
        "ist",
        "s"
      ],
      [
        "Ġpro",
        "f"
      ],
      [
        "ĠIs",
        "n"
      ],
      [
        "Ġperson",
        "al"
      ],
      [
        "Ġbeg",
        "in"
      ],
      [
        "es",
        "ides"
      ],
      [
        "ĠM",
        "c"
      ],
      [
        "ho",
        "se"
      ],
      [
        "w",
        "hat"
      ],
      [
        "ant",
        "s"
      ],
      [
        "Ġsomet",
        "imes"
      ],
      [
        "Ġme",
        "ant"
      ],
      [
        "Ġplay",
        "ing"
      ],
      [
        "idd",
        "le"
      ],
      [
        "Ġp",
        "leas"
      ],
      [
        "Ġpri",
        "v"
      ],
      [
        "i",
        "ver"
      ],
      [
        "m",
        "en"
      ],
      [
        "j",
        "or"
      ],
      [
        "Ġs",
        "al"
      ],
      [
        "ot",
        "s"
      ],
      [
        "ur",
        "s"
      ],
      [
        "Ġf",
        "elt"
      ],
      [
        "Ġluck",
        "y"
      ],
      [
        "Ġh",
        "ospital"
      ],
      [
        "Ġst",
        "ar"
      ],
      [
        "ĠB",
        "y"
      ],
      [
        "Ġpo",
        "or"
      ],
      [
        "ĠP",
        "eople"
      ],
      [
        "ĠEx",
        "cuse"
      ],
      [
        "Ġt",
        "reat"
      ],
      [
        "Ġf",
        "ly"
      ],
      [
        "Ġo",
        "per"
      ],
      [
        "Ġcon",
        "cer"
      ],
      [
        "Ġatt",
        "ack"
      ],
      [
        "solute",
        "ly"
      ],
      [
        "ĠP",
        "aul"
      ],
      [
        "Ġr",
        "ide"
      ],
      [
        "b",
        "ar"
      ],
      [
        "Ġb",
        "other"
      ],
      [
        "Ġt",
        "akes"
      ],
      [
        "ĠC",
        "all"
      ],
      [
        "Ġcl",
        "ot"
      ],
      [
        "h",
        "ow"
      ],
      [
        "ĠB",
        "ig"
      ],
      [
        "Ġsu",
        "sp"
      ],
      [
        "Ġw",
        "all"
      ],
      [
        "Ġp",
        "ar"
      ],
      [
        "ast",
        "e"
      ],
      [
        "Ġex",
        "c"
      ],
      [
        "b",
        "ut"
      ],
      [
        "i",
        "ble"
      ],
      [
        "Ġd",
        "ate"
      ],
      [
        "ĠN",
        "ick"
      ],
      [
        "ĠR",
        "o"
      ],
      [
        "Ġinv",
        "ol"
      ],
      [
        "Ġc",
        "ity"
      ],
      [
        "ĠTh",
        "ree"
      ],
      [
        "Ġtalk",
        "ed"
      ],
      [
        "l",
        "ish"
      ],
      [
        "Ġsha",
        "ll"
      ],
      [
        "T",
        "he"
      ],
      [
        "w",
        "e"
      ],
      [
        "er",
        "ry"
      ],
      [
        "ĠG",
        "en"
      ],
      [
        "ĠP",
        "r"
      ],
      [
        "Ġother",
        "s"
      ],
      [
        "Ġk",
        "iss"
      ],
      [
        "ĠG",
        "ra"
      ],
      [
        "b",
        "or"
      ],
      [
        "b",
        "ye"
      ],
      [
        "j",
        "oy"
      ],
      [
        "ĠT",
        "hose"
      ],
      [
        "Ġst",
        "ick"
      ],
      [
        "Ġbl",
        "ow"
      ],
      [
        "b",
        "t"
      ],
      [
        "f",
        "er"
      ],
      [
        "ver",
        "n"
      ],
      [
        "ĠDad",
        "dy"
      ],
      [
        "l",
        "in"
      ],
      [
        "re",
        "ed"
      ],
      [
        "Ġg",
        "row"
      ],
      [
        "Ġsp",
        "end"
      ],
      [
        "b",
        "all"
      ],
      [
        "Ġsy",
        "stem"
      ],
      [
        "f",
        "ive"
      ],
      [
        "ĠS",
        "ha"
      ],
      [
        "ir",
        "t"
      ],
      [
        "ĠJo",
        "e"
      ],
      [
        "Ġresp",
        "ect"
      ],
      [
        "'",
        ","
      ],
      [
        "i",
        "ch"
      ],
      [
        "Ġb",
        "ank"
      ],
      [
        "Ġmeet",
        "ing"
      ],
      [
        "e",
        "ad"
      ],
      [
        "Ġmus",
        "ic"
      ],
      [
        "ĠC",
        "al"
      ],
      [
        "Ġtr",
        "ans"
      ],
      [
        "Ġout",
        "ta"
      ],
      [
        "Ġdo",
        "in"
      ],
      [
        "if",
        "ic"
      ],
      [
        "Ġturn",
        "ed"
      ],
      [
        "Ġb",
        "as"
      ],
      [
        "ĠC",
        "ha"
      ],
      [
        "de",
        "red"
      ],
      [
        "ter",
        "day"
      ],
      [
        "Ġsm",
        "art"
      ],
      [
        "Ġpap",
        "er"
      ],
      [
        "Y",
        "ou"
      ],
      [
        "Ġb",
        "ag"
      ],
      [
        "Ġsee",
        "ing"
      ],
      [
        "Ġlove",
        "d"
      ],
      [
        "ĠAl",
        "right"
      ],
      [
        "Ġc",
        "ause"
      ],
      [
        "Ġhot",
        "el"
      ],
      [
        "Ġgi",
        "ving"
      ],
      [
        "ĠH",
        "a"
      ],
      [
        "ill",
        "s"
      ],
      [
        "Ġco",
        "st"
      ],
      [
        "Ġdr",
        "ug"
      ],
      [
        "k",
        "en"
      ],
      [
        "Ġ",
        "ow"
      ],
      [
        "Ġin",
        "d"
      ],
      [
        "id",
        "ed"
      ],
      [
        "ho",
        "le"
      ],
      [
        "c",
        "ha"
      ],
      [
        "Ġp",
        "ress"
      ],
      [
        "Ġbe",
        "come"
      ],
      [
        "ĠM",
        "other"
      ],
      [
        "Ġcan",
        "not"
      ],
      [
        "ĠP",
        "ar"
      ],
      [
        "Ġwor",
        "se"
      ],
      [
        "c",
        "om"
      ],
      [
        "Ġqu",
        "ick"
      ],
      [
        "Ġap",
        "artment"
      ],
      [
        "m",
        "ing"
      ],
      [
        "it",
        "ies"
      ],
      [
        "ĠE",
        "n"
      ],
      [
        "Ġbull",
        "shit"
      ],
      [
        "Ġst",
        "ore"
      ],
      [
        "u",
        "ation"
      ],
      [
        "ent",
        "le"
      ],
      [
        "g",
        "an"
      ],
      [
        "Ġco",
        "ffee"
      ],
      [
        "arl",
        "ing"
      ],
      [
        "e",
        "red"
      ],
      [
        "Ġto",
        "p"
      ],
      [
        "Ġto",
        "t"
      ],
      [
        "ĠTh",
        "ink"
      ],
      [
        "ĠDav",
        "id"
      ],
      [
        "b",
        "r"
      ],
      [
        "Ġf",
        "air"
      ],
      [
        "ĠN",
        "ice"
      ],
      [
        "ĠK",
        "eep"
      ],
      [
        "l",
        "s"
      ],
      [
        "oo",
        "f"
      ],
      [
        "Ġm",
        "ention"
      ],
      [
        "Ġf",
        "eet"
      ],
      [
        "ill",
        "y"
      ],
      [
        "Ġe",
        "ye"
      ],
      [
        "ing",
        "er"
      ],
      [
        "ĠChar",
        "lie"
      ],
      [
        "in",
        "a"
      ],
      [
        "Ġsim",
        "ple"
      ],
      [
        "u",
        "es"
      ],
      [
        "Ġf",
        "ault"
      ],
      [
        "Ġlau",
        "gh"
      ],
      [
        "u",
        "ri"
      ],
      [
        "ra",
        "p"
      ],
      [
        "ĠWhat",
        "ever"
      ],
      [
        "Ġwor",
        "ried"
      ],
      [
        "Ġresp",
        "on"
      ],
      [
        "ull",
        "y"
      ],
      [
        "Ġsw",
        "ear"
      ],
      [
        "Ġhand",
        "le"
      ],
      [
        "ĠRem",
        "ember"
      ],
      [
        "ir",
        "th"
      ],
      [
        "A",
        "T"
      ],
      [
        "i",
        "k"
      ],
      [
        "ĠB",
        "oy"
      ],
      [
        "Ġfuck",
        "ed"
      ],
      [
        "Ġlaw",
        "y"
      ],
      [
        "h",
        "uh"
      ],
      [
        "s",
        "et"
      ],
      [
        "Ġro",
        "ad"
      ],
      [
        "Ġdiffe",
        "rence"
      ],
      [
        "Ġp",
        "aid"
      ],
      [
        "Ġon",
        "es"
      ],
      [
        "ĠFor",
        "get"
      ],
      [
        "Ġt",
        "y"
      ],
      [
        "Ġte",
        "le"
      ],
      [
        "ĠI",
        "nd"
      ],
      [
        "Ġp",
        "en"
      ],
      [
        "ĠSomet",
        "imes"
      ],
      [
        "ĠC",
        "ol"
      ],
      [
        "Ġso",
        "ld"
      ],
      [
        "Ġcho",
        "ice"
      ],
      [
        "ĠJe",
        "ff"
      ],
      [
        "A",
        "N"
      ],
      [
        "b",
        "o"
      ],
      [
        "c",
        "ri"
      ],
      [
        "Ġin",
        "vest"
      ],
      [
        "m",
        "a"
      ],
      [
        "or",
        "ies"
      ],
      [
        "Ġc",
        "aught"
      ],
      [
        "Ġk",
        "ept"
      ],
      [
        "am",
        "ed"
      ],
      [
        "ha",
        "el"
      ],
      [
        "ri",
        "e"
      ],
      [
        "v",
        "ious"
      ],
      [
        "Ġst",
        "o"
      ],
      [
        "Ġmist",
        "ake"
      ],
      [
        "Ġclot",
        "hes"
      ],
      [
        "s",
        "ing"
      ],
      [
        "Ġk",
        "ick"
      ],
      [
        "ĠO",
        "K"
      ],
      [
        "ur",
        "ry"
      ],
      [
        "o",
        "int"
      ],
      [
        "el",
        "ve"
      ],
      [
        "\"",
        "."
      ],
      [
        "ĠM",
        "ister"
      ],
      [
        "Ġplan",
        "e"
      ],
      [
        "Ġstr",
        "ong"
      ],
      [
        "in",
        "al"
      ],
      [
        "re",
        "y"
      ],
      [
        "Ġb",
        "reat"
      ],
      [
        "Ġ",
        "3"
      ],
      [
        "er",
        "ing"
      ],
      [
        "ĠA",
        "ct"
      ],
      [
        "ĠR",
        "ose"
      ],
      [
        "Ġdro",
        "p"
      ],
      [
        "e",
        "ed"
      ],
      [
        "n",
        "ight"
      ],
      [
        "v",
        "ent"
      ],
      [
        "is",
        "m"
      ],
      [
        "Ġsh",
        "ort"
      ],
      [
        "Ġse",
        "ven"
      ],
      [
        "Ġchan",
        "ged"
      ],
      [
        "----",
        "----"
      ],
      [
        "n",
        "es"
      ],
      [
        "ro",
        "y"
      ],
      [
        "Ġcop",
        "s"
      ],
      [
        "Ġd",
        "eep"
      ],
      [
        "Ġinform",
        "ation"
      ],
      [
        "ĠMic",
        "hael"
      ],
      [
        "it",
        "ive"
      ],
      [
        "Ġc",
        "reat"
      ],
      [
        "ĠR",
        "ay"
      ],
      [
        "u",
        "ry"
      ],
      [
        "ĠAny",
        "thing"
      ],
      [
        "Ġbuck",
        "s"
      ],
      [
        "Ġmar",
        "ry"
      ],
      [
        "ut",
        "ure"
      ],
      [
        "Ġmur",
        "der"
      ],
      [
        "Ġa",
        "ff"
      ],
      [
        "ĠL",
        "ea"
      ],
      [
        "Ġhon",
        "est"
      ],
      [
        "ĠN",
        "O"
      ],
      [
        "r",
        "ing"
      ],
      [
        "r",
        "ay"
      ],
      [
        "Ġ",
        "["
      ],
      [
        "Ġsm",
        "ell"
      ],
      [
        "ĠWal",
        "ter"
      ],
      [
        "R",
        "E"
      ],
      [
        "Ġm",
        "iddle"
      ],
      [
        "le",
        "x"
      ],
      [
        "Ġret",
        "urn"
      ],
      [
        "Ġm",
        "is"
      ],
      [
        "ĠD",
        "ick"
      ],
      [
        "Ġv",
        "o"
      ],
      [
        "Ġm",
        "ach"
      ],
      [
        "Ġne",
        "ar"
      ],
      [
        "Ġgi",
        "ven"
      ],
      [
        "t",
        "hat"
      ],
      [
        "ĠT",
        "V"
      ],
      [
        "d",
        "ers"
      ],
      [
        "er",
        "ve"
      ],
      [
        "ag",
        "es"
      ],
      [
        "O",
        "N"
      ],
      [
        "ĠT",
        "e"
      ],
      [
        "ĠL",
        "u"
      ],
      [
        "Ġli",
        "ked"
      ],
      [
        "Ġpr",
        "ison"
      ],
      [
        "un",
        "e"
      ],
      [
        "od",
        "e"
      ],
      [
        "g",
        "es"
      ],
      [
        "Ġpro",
        "g"
      ],
      [
        "ĠB",
        "u"
      ],
      [
        "ĠF",
        "l"
      ],
      [
        "ul",
        "ar"
      ],
      [
        "Ġsound",
        "s"
      ],
      [
        "us",
        "ed"
      ],
      [
        "Ġser",
        "v"
      ],
      [
        "L",
        "L"
      ],
      [
        "ur",
        "ity"
      ],
      [
        "il",
        "t"
      ],
      [
        "Ġlong",
        "er"
      ],
      [
        "Ġh",
        "ung"
      ],
      [
        "if",
        "t"
      ],
      [
        "Ġp",
        "ract"
      ],
      [
        "ĠF",
        "our"
      ],
      [
        "Ġdr",
        "unk"
      ],
      [
        "ĠAmeric",
        "an"
      ],
      [
        "Ġen",
        "joy"
      ],
      [
        ",",
        "\""
      ],
      [
        "ĠD",
        "amn"
      ],
      [
        "\"",
        "?"
      ],
      [
        "Ġhas",
        "n"
      ],
      [
        "Ġbus",
        "y"
      ],
      [
        "Ġt",
        "ick"
      ],
      [
        "re",
        "ci"
      ],
      [
        "Ġf",
        "uture"
      ],
      [
        "Ġst",
        "range"
      ],
      [
        "ĠEvery",
        "body"
      ],
      [
        "Ġs",
        "ake"
      ],
      [
        "Ġl",
        "ying"
      ],
      [
        "Ġb",
        "ast"
      ],
      [
        "Ġyes",
        "terday"
      ],
      [
        "Ġbra",
        "in"
      ],
      [
        "Ġterri",
        "ble"
      ],
      [
        "f",
        "or"
      ],
      [
        "ĠS",
        "id"
      ],
      [
        "Ġcon",
        "d"
      ],
      [
        "Ġqu",
        "it"
      ],
      [
        "Ġcl",
        "os"
      ],
      [
        "Ġhappen",
        "ing"
      ],
      [
        "Ġinvol",
        "ved"
      ],
      [
        "et",
        "y"
      ],
      [
        "Ġre",
        "d"
      ],
      [
        "ĠP",
        "ut"
      ],
      [
        "il",
        "i"
      ],
      [
        "Ġd",
        "iv"
      ],
      [
        "Ġb",
        "ath"
      ],
      [
        "ĠW",
        "ar"
      ],
      [
        "f",
        "uck"
      ],
      [
        "Ġr",
        "is"
      ],
      [
        "ist",
        "ory"
      ],
      [
        "Ġex",
        "cept"
      ],
      [
        "ber",
        "t"
      ],
      [
        "Ġfig",
        "ured"
      ],
      [
        "ĠTH",
        "E"
      ],
      [
        "re",
        "ad"
      ],
      [
        "Ġc",
        "ent"
      ],
      [
        "ĠP",
        "h"
      ],
      [
        "ation",
        "al"
      ],
      [
        "Ġbo",
        "at"
      ],
      [
        "c",
        "ing"
      ],
      [
        "Ġsu",
        "it"
      ],
      [
        "Ġdanger",
        "ous"
      ],
      [
        "k",
        "y"
      ],
      [
        "Ġany",
        "where"
      ],
      [
        "iss",
        "ion"
      ],
      [
        "Ġproble",
        "ms"
      ],
      [
        "Ġsit",
        "uation"
      ],
      [
        "Ġb",
        "irth"
      ],
      [
        "Ġl",
        "unch"
      ],
      [
        "em",
        "ent"
      ],
      [
        "t",
        "le"
      ],
      [
        "Ġfin",
        "ish"
      ],
      [
        "ĠEng",
        "lish"
      ],
      [
        "i",
        "ot"
      ],
      [
        "n",
        "ect"
      ],
      [
        "ĠM",
        "ake"
      ],
      [
        "Ġ1",
        "9"
      ],
      [
        "k",
        "now"
      ],
      [
        "Ġs",
        "at"
      ],
      [
        "Ġj",
        "ump"
      ],
      [
        "ore",
        "d"
      ],
      [
        "Ġcall",
        "s"
      ],
      [
        "Ġ",
        "ill"
      ],
      [
        "Ġf",
        "oot"
      ],
      [
        "ur",
        "ing"
      ],
      [
        "Ġent",
        "ire"
      ],
      [
        "ĠJim",
        "my"
      ],
      [
        "Ġfl",
        "oor"
      ],
      [
        "Ġpub",
        "lic"
      ],
      [
        "i",
        "ol"
      ],
      [
        "ĠP",
        "eter"
      ],
      [
        "Ġmo",
        "ving"
      ],
      [
        "Ġbro",
        "ke"
      ],
      [
        "ea",
        "ce"
      ],
      [
        "Ġc",
        "ab"
      ],
      [
        "Ġp",
        "ack"
      ],
      [
        "ur",
        "se"
      ],
      [
        "ĠSome",
        "one"
      ],
      [
        "Ġs",
        "itting"
      ],
      [
        "Ġb",
        "orn"
      ],
      [
        "Ġst",
        "ri"
      ],
      [
        "ect",
        "ive"
      ],
      [
        "Ġo",
        "h"
      ],
      [
        "Ġwe",
        "ird"
      ],
      [
        "Ġup",
        "set"
      ],
      [
        "Ġapp",
        "reci"
      ],
      [
        "Ġ",
        "ed"
      ],
      [
        "ou",
        "n"
      ],
      [
        "Ġg",
        "entle"
      ],
      [
        "Ġj",
        "ail"
      ],
      [
        "ĠK",
        "ing"
      ],
      [
        "Ġtri",
        "p"
      ],
      [
        "Ġw",
        "it"
      ],
      [
        "Ġc",
        "al"
      ],
      [
        "ut",
        "ion"
      ],
      [
        "Ġkn",
        "ock"
      ],
      [
        "Ġde",
        "v"
      ],
      [
        "Ġwatch",
        "ing"
      ],
      [
        "Ġri",
        "ch"
      ],
      [
        "i",
        "en"
      ],
      [
        "Ġs",
        "un"
      ],
      [
        "Ġe",
        "arly"
      ],
      [
        "ĠB",
        "esides"
      ],
      [
        "Ġan",
        "im"
      ],
      [
        "ĠPer",
        "haps"
      ],
      [
        "Ġtr",
        "uck"
      ],
      [
        "o",
        "f"
      ],
      [
        "Ġb",
        "oss"
      ],
      [
        "Ġf",
        "ear"
      ],
      [
        "Ġp",
        "iss"
      ],
      [
        "ac",
        "es"
      ],
      [
        "Ġbo",
        "x"
      ],
      [
        "ĠT",
        "oo"
      ],
      [
        "ro",
        "p"
      ],
      [
        "ĠJ",
        "ames"
      ],
      [
        "Ġen",
        "g"
      ],
      [
        "cl",
        "ock"
      ],
      [
        "Ġcomplete",
        "ly"
      ],
      [
        "r",
        "or"
      ],
      [
        "Ġst",
        "ep"
      ],
      [
        "Ġkill",
        "ing"
      ],
      [
        "i",
        "pp"
      ],
      [
        "Ġb",
        "ur"
      ],
      [
        "Ġl",
        "ist"
      ],
      [
        "id",
        "ge"
      ],
      [
        "Ġreal",
        "ize"
      ],
      [
        "Ġacc",
        "ount"
      ],
      [
        "Ġr",
        "ing"
      ],
      [
        "Ġch",
        "ick"
      ],
      [
        "t",
        "in"
      ],
      [
        "st",
        "airs"
      ],
      [
        "ĠE",
        "dd"
      ],
      [
        "Ġneed",
        "ed"
      ],
      [
        "y",
        "le"
      ],
      [
        "it",
        "che"
      ],
      [
        "ĠC",
        "arl"
      ],
      [
        "um",
        "e"
      ],
      [
        "Ġb",
        "ott"
      ],
      [
        "ac",
        "he"
      ],
      [
        "Ġb",
        "ust"
      ],
      [
        "ĠS",
        "al"
      ],
      [
        "ment",
        "s"
      ],
      [
        "!!",
        "!"
      ],
      [
        "ĠGen",
        "eral"
      ],
      [
        "it",
        "er"
      ],
      [
        "ke",
        "y"
      ],
      [
        "ĠO",
        "ut"
      ],
      [
        "ĠJohn",
        "ny"
      ],
      [
        "erv",
        "ous"
      ],
      [
        "Ġo",
        "cc"
      ],
      [
        "ain",
        "e"
      ],
      [
        "b",
        "ers"
      ],
      [
        "g",
        "ing"
      ],
      [
        "y",
        "n"
      ],
      [
        "Ġp",
        "al"
      ],
      [
        "Ġsu",
        "per"
      ],
      [
        "Ġbuild",
        "ing"
      ],
      [
        "Ġn",
        "ine"
      ],
      [
        "Ġst",
        "ate"
      ],
      [
        "ĠF",
        "ather"
      ],
      [
        "Ġoff",
        "er"
      ],
      [
        "Ġlet",
        "ter"
      ],
      [
        "Ġm",
        "ot"
      ],
      [
        "Ġpro",
        "per"
      ],
      [
        "ĠSh",
        "ould"
      ],
      [
        "Ġdisc",
        "uss"
      ],
      [
        "Ġrad",
        "io"
      ],
      [
        "Ġco",
        "ver"
      ],
      [
        "Ġkind",
        "a"
      ],
      [
        "Ġpos",
        "sib"
      ],
      [
        "Ġpriv",
        "ate"
      ],
      [
        "Ġcare",
        "ful"
      ],
      [
        "Ġgl",
        "ass"
      ],
      [
        "no",
        "on"
      ],
      [
        "o",
        "on"
      ],
      [
        "Ġnot",
        "hin"
      ],
      [
        "e",
        "ge"
      ],
      [
        "Ġo",
        "pp"
      ],
      [
        "Ġan",
        "g"
      ],
      [
        "Ġdou",
        "bt"
      ],
      [
        "ĠB",
        "el"
      ],
      [
        "ud",
        "ge"
      ],
      [
        "Ġeven",
        "ing"
      ],
      [
        "dd",
        "en"
      ],
      [
        "Ġsl",
        "ow"
      ],
      [
        "Ġbel",
        "ong"
      ],
      [
        "p",
        "ort"
      ],
      [
        "ĠA",
        "lex"
      ],
      [
        "ĠJ",
        "ake"
      ],
      [
        "and",
        "er"
      ],
      [
        "Ġsu",
        "dden"
      ],
      [
        "Ġt",
        "ough"
      ],
      [
        "ren",
        "ch"
      ],
      [
        "Ġdest",
        "roy"
      ],
      [
        "Ġqu",
        "iet"
      ],
      [
        "Ġbook",
        "s"
      ],
      [
        "Ġcertain",
        "ly"
      ],
      [
        "ĠS",
        "ix"
      ],
      [
        "in",
        "o"
      ],
      [
        "Ġb",
        "urn"
      ],
      [
        "Ġc",
        "at"
      ],
      [
        "ĠE",
        "ve"
      ],
      [
        "Ġlo",
        "c"
      ],
      [
        "lf",
        "riend"
      ],
      [
        "Ġimag",
        "ine"
      ],
      [
        "e",
        "c"
      ],
      [
        "Ġb",
        "ought"
      ],
      [
        "Ġar",
        "rest"
      ],
      [
        "Ġcour",
        "t"
      ],
      [
        "Ġpick",
        "ed"
      ],
      [
        "Ġ",
        "z"
      ],
      [
        "ri",
        "ll"
      ],
      [
        "g",
        "u"
      ],
      [
        "i",
        "um"
      ],
      [
        "Ġ",
        "4"
      ],
      [
        "ĠN",
        "or"
      ],
      [
        "Ġmess",
        "age"
      ],
      [
        "Ġwind",
        "ow"
      ],
      [
        "e",
        "at"
      ],
      [
        "m",
        "as"
      ],
      [
        "Ġl",
        "ay"
      ],
      [
        "ĠR",
        "us"
      ],
      [
        "Ġte",
        "am"
      ],
      [
        "Ġsto",
        "pped"
      ],
      [
        "Ġm",
        "iles"
      ],
      [
        "Ġc",
        "ig"
      ],
      [
        "ĠB",
        "ea"
      ],
      [
        "ĠF",
        "red"
      ],
      [
        "Ġse",
        "lf"
      ],
      [
        "Ġafter",
        "noon"
      ],
      [
        "f",
        "ully"
      ],
      [
        "Ġli",
        "kes"
      ],
      [
        "Ġcar",
        "ry"
      ],
      [
        "Ġlive",
        "d"
      ],
      [
        "ĠAct",
        "ually"
      ],
      [
        "et",
        "t"
      ],
      [
        "ĠM",
        "ore"
      ],
      [
        "ur",
        "ch"
      ],
      [
        "Ġh",
        "istory"
      ],
      [
        "Ġfin",
        "ished"
      ],
      [
        "r",
        "on"
      ],
      [
        "Ġdec",
        "ided"
      ],
      [
        "Ġow",
        "e"
      ],
      [
        ">",
        ","
      ],
      [
        "ĠM",
        "ike"
      ],
      [
        "Ġkill",
        "er"
      ],
      [
        "Ġes",
        "c"
      ],
      [
        "ĠH",
        "old"
      ],
      [
        "ort",
        "h"
      ],
      [
        "Ġinterest",
        "ing"
      ],
      [
        "Ġb",
        "le"
      ],
      [
        "at",
        "ic"
      ],
      [
        "Ġde",
        "m"
      ],
      [
        "Ġ",
        ".."
      ],
      [
        "Ġpres",
        "ent"
      ],
      [
        "Ġun",
        "less"
      ],
      [
        "Ġmar",
        "k"
      ],
      [
        "Ġad",
        "m"
      ],
      [
        "ĠAny",
        "way"
      ],
      [
        "ĠWh",
        "ite"
      ],
      [
        "Ġlawy",
        "er"
      ],
      [
        "Ġst",
        "eal"
      ],
      [
        "ĠE",
        "ll"
      ],
      [
        "Ġwr",
        "ote"
      ],
      [
        "id",
        "ing"
      ],
      [
        "ĠS",
        "er"
      ],
      [
        "ĠM",
        "or"
      ],
      [
        "Ġtea",
        "ch"
      ],
      [
        "Ġcons",
        "ider"
      ],
      [
        "vern",
        "ment"
      ],
      [
        "Ġc",
        "ir"
      ],
      [
        "Ġc",
        "ash"
      ],
      [
        "Ġn",
        "amed"
      ],
      [
        "Ġe",
        "ar"
      ],
      [
        "ci",
        "ally"
      ],
      [
        "ĠSe",
        "c"
      ],
      [
        "ĠEdd",
        "ie"
      ],
      [
        "ĠS",
        "on"
      ],
      [
        "Ġso",
        "l"
      ],
      [
        "Ġsc",
        "rew"
      ],
      [
        "Ġdra",
        "w"
      ],
      [
        "Ġd",
        "ig"
      ],
      [
        "Ġn",
        "ervous"
      ],
      [
        "Ġcomp",
        "ut"
      ],
      [
        "ĠT",
        "ry"
      ],
      [
        "im",
        "ent"
      ],
      [
        "o",
        "ly"
      ],
      [
        "er",
        "g"
      ],
      [
        "ĠS",
        "en"
      ],
      [
        "ff",
        "ic"
      ],
      [
        "Ġass",
        "hole"
      ],
      [
        "Ġstay",
        "ing"
      ],
      [
        "Ġtap",
        "e"
      ],
      [
        "b",
        "oy"
      ],
      [
        "Ġc",
        "ross"
      ],
      [
        "Ġt",
        "able"
      ],
      [
        "as",
        "k"
      ],
      [
        "ĠG",
        "l"
      ],
      [
        "Ġgot",
        "ten"
      ],
      [
        "ĠP",
        "at"
      ],
      [
        "in",
        "ation"
      ],
      [
        "Ġc",
        "ard"
      ],
      [
        "en",
        "ed"
      ],
      [
        "Ġn",
        "one"
      ],
      [
        "Ġgir",
        "lfriend"
      ],
      [
        "re",
        "ct"
      ],
      [
        "ĠM",
        "ad"
      ],
      [
        "ĠB",
        "o"
      ],
      [
        "op",
        "e"
      ],
      [
        "ta",
        "ct"
      ],
      [
        "Ġvis",
        "it"
      ],
      [
        "Ġvo",
        "ice"
      ],
      [
        "Ġs",
        "oul"
      ],
      [
        "ur",
        "p"
      ],
      [
        "Ġar",
        "m"
      ],
      [
        "Ġpicture",
        "s"
      ],
      [
        "Ġac",
        "cept"
      ],
      [
        "Ġac",
        "ross"
      ],
      [
        "Ġb",
        "omb"
      ],
      [
        "Ġth",
        "reat"
      ],
      [
        "ĠL",
        "ord"
      ],
      [
        "ĠS",
        "im"
      ],
      [
        "Ġgo",
        "ld"
      ],
      [
        "if",
        "f"
      ],
      [
        "Ġpro",
        "ve"
      ],
      [
        "C",
        "K"
      ],
      [
        "f",
        "riend"
      ],
      [
        "Ġ",
        "er"
      ],
      [
        "Ġd",
        "ance"
      ],
      [
        "Ġall",
        "ow"
      ],
      [
        "Ġhad",
        "n"
      ],
      [
        "ĠChrist",
        "mas"
      ],
      [
        "Ġg",
        "ar"
      ],
      [
        "Ġne",
        "igh"
      ],
      [
        "Ġforg",
        "ot"
      ],
      [
        "Ġp",
        "op"
      ],
      [
        "ĠS",
        "ch"
      ],
      [
        "ĠL",
        "ast"
      ],
      [
        "el",
        "s"
      ],
      [
        "Ġappreci",
        "ate"
      ],
      [
        "Ġwe",
        "ap"
      ],
      [
        "al",
        "t"
      ],
      [
        "ĠC",
        "o"
      ],
      [
        "Ġsomet",
        "hin"
      ],
      [
        "ĠSt",
        "ay"
      ],
      [
        "l",
        "come"
      ],
      [
        "Ġb",
        "ird"
      ],
      [
        "ĠE",
        "m"
      ],
      [
        "IN",
        "G"
      ],
      [
        "g",
        "ue"
      ],
      [
        "ĠT",
        "ed"
      ],
      [
        "Ġst",
        "ation"
      ],
      [
        "Ġinst",
        "ead"
      ],
      [
        "ri",
        "age"
      ],
      [
        "are",
        "t"
      ],
      [
        "Ġtw",
        "elve"
      ],
      [
        "gg",
        "est"
      ],
      [
        "ĠH",
        "oll"
      ],
      [
        "ic",
        "es"
      ],
      [
        "ĠRus",
        "si"
      ],
      [
        "Ġc",
        "as"
      ],
      [
        "Ġf",
        "at"
      ],
      [
        "Ġ",
        "ve"
      ],
      [
        "Ġg",
        "round"
      ],
      [
        "ck",
        "er"
      ],
      [
        "ĠF",
        "rench"
      ],
      [
        "Ġd",
        "umb"
      ],
      [
        "Ġb",
        "unch"
      ],
      [
        "Ġre",
        "ach"
      ],
      [
        "Ġper",
        "haps"
      ],
      [
        "Ġimp",
        "ress"
      ],
      [
        "Ġap",
        "olog"
      ],
      [
        "Ġbast",
        "ard"
      ],
      [
        "en",
        "n"
      ],
      [
        "ĠF",
        "ive"
      ],
      [
        "Ġsu",
        "ggest"
      ],
      [
        "v",
        "y"
      ],
      [
        "ĠW",
        "ant"
      ],
      [
        "ĠM",
        "ac"
      ],
      [
        "Ġfor",
        "ty"
      ],
      [
        "Ġre",
        "qu"
      ],
      [
        "Ġgo",
        "d"
      ],
      [
        "Ġcon",
        "tact"
      ],
      [
        "ri",
        "es"
      ],
      [
        "Ġv",
        "al"
      ],
      [
        "Ġput",
        "ting"
      ],
      [
        "Ġfif",
        "teen"
      ],
      [
        "Ġa",
        "ge"
      ],
      [
        "Ġm",
        "il"
      ],
      [
        "Ġp",
        "ark"
      ],
      [
        "Ġv",
        "ict"
      ],
      [
        "ĠSt",
        "e"
      ],
      [
        "Ġmiss",
        "ing"
      ],
      [
        "Ġfin",
        "ally"
      ],
      [
        "i",
        "res"
      ],
      [
        "Ġ",
        "ice"
      ],
      [
        "Ġt",
        "re"
      ],
      [
        "in",
        "ite"
      ],
      [
        "Ġm",
        "ain"
      ],
      [
        "Ġf",
        "ol"
      ],
      [
        "oo",
        "p"
      ],
      [
        "Ġlisten",
        "ing"
      ],
      [
        "Ġdri",
        "ving"
      ],
      [
        "Ġw",
        "ake"
      ],
      [
        "Ġpre",
        "p"
      ],
      [
        "r",
        "id"
      ],
      [
        "he",
        "n"
      ],
      [
[...]
